node {
  name: "global_step/Initializer/zeros"
  op: "Const"
  attr {
    key: "_class"
    value {
      list {
        s: "loc:@global_step"
      }
    }
  }
  attr {
    key: "_output_shapes"
    value {
      list {
        shape {
        }
      }
    }
  }
  attr {
    key: "dtype"
    value {
      type: DT_INT64
    }
  }
  attr {
    key: "value"
    value {
      tensor {
        dtype: DT_INT64
        tensor_shape {
        }
        int64_val: 0
      }
    }
  }
}
node {
  name: "global_step"
  op: "VarHandleOp"
  attr {
    key: "_class"
    value {
      list {
        s: "loc:@global_step"
      }
    }
  }
  attr {
    key: "_output_shapes"
    value {
      list {
        shape {
        }
      }
    }
  }
  attr {
    key: "container"
    value {
      s: ""
    }
  }
  attr {
    key: "dtype"
    value {
      type: DT_INT64
    }
  }
  attr {
    key: "shape"
    value {
      shape {
      }
    }
  }
  attr {
    key: "shared_name"
    value {
      s: "global_step"
    }
  }
}
node {
  name: "global_step/IsInitialized/VarIsInitializedOp"
  op: "VarIsInitializedOp"
  input: "global_step"
  attr {
    key: "_output_shapes"
    value {
      list {
        shape {
        }
      }
    }
  }
}
node {
  name: "global_step/Assign"
  op: "AssignVariableOp"
  input: "global_step"
  input: "global_step/Initializer/zeros"
  attr {
    key: "dtype"
    value {
      type: DT_INT64
    }
  }
}
node {
  name: "global_step/Read/ReadVariableOp"
  op: "ReadVariableOp"
  input: "global_step"
  attr {
    key: "_output_shapes"
    value {
      list {
        shape {
        }
      }
    }
  }
  attr {
    key: "dtype"
    value {
      type: DT_INT64
    }
  }
}
node {
  name: "global_step/VarIsInitializedOp"
  op: "VarIsInitializedOp"
  input: "global_step"
  attr {
    key: "_output_shapes"
    value {
      list {
        shape {
        }
      }
    }
  }
}
node {
  name: "global_step/cond"
  op: "If"
  input: "global_step/VarIsInitializedOp"
  input: "global_step"
  input: "global_step/Initializer/zeros"
  attr {
    key: "Tcond"
    value {
      type: DT_BOOL
    }
  }
  attr {
    key: "Tin"
    value {
      list {
        type: DT_RESOURCE
        type: DT_INT64
      }
    }
  }
  attr {
    key: "Tout"
    value {
      list {
        type: DT_INT64
      }
    }
  }
  attr {
    key: "_lower_using_switch_merge"
    value {
      b: true
    }
  }
  attr {
    key: "_output_shapes"
    value {
      list {
        shape {
        }
      }
    }
  }
  attr {
    key: "_read_only_resource_inputs"
    value {
      list {
        i: 1
      }
    }
  }
  attr {
    key: "else_branch"
    value {
      func {
        name: "global_step_cond_false_41"
      }
    }
  }
  attr {
    key: "output_shapes"
    value {
      list {
        shape {
        }
      }
    }
  }
  attr {
    key: "then_branch"
    value {
      func {
        name: "global_step_cond_true_40"
      }
    }
  }
}
node {
  name: "global_step/cond/Identity"
  op: "Identity"
  input: "global_step/cond"
  attr {
    key: "T"
    value {
      type: DT_INT64
    }
  }
  attr {
    key: "_output_shapes"
    value {
      list {
        shape {
        }
      }
    }
  }
}
node {
  name: "global_step/add/y"
  op: "Const"
  attr {
    key: "_output_shapes"
    value {
      list {
        shape {
        }
      }
    }
  }
  attr {
    key: "dtype"
    value {
      type: DT_INT64
    }
  }
  attr {
    key: "value"
    value {
      tensor {
        dtype: DT_INT64
        tensor_shape {
        }
        int64_val: 0
      }
    }
  }
}
node {
  name: "global_step/add"
  op: "AddV2"
  input: "global_step/cond/Identity"
  input: "global_step/add/y"
  attr {
    key: "T"
    value {
      type: DT_INT64
    }
  }
  attr {
    key: "_output_shapes"
    value {
      list {
        shape {
        }
      }
    }
  }
}
node {
  name: "normalize_element/component_0"
  op: "Const"
  device: "/device:CPU:0"
  attr {
    key: "_output_shapes"
    value {
      list {
        shape {
          dim {
            size: 313
          }
        }
      }
    }
  }
  attr {
    key: "dtype"
    value {
      type: DT_DOUBLE
    }
  }
  attr {
    key: "value"
    value {
      tensor {
        dtype: DT_DOUBLE
        tensor_shape {
          dim {
            size: 313
          }
        }
        tensor_content: "<\255\272h\000!\247\277lOiq\232\214\325\277<\255\272h\000!\247\277\236\252\276\202>\n\356?\232M\254\000\241\013\370\277G\343\304\243i\031\322?\222\014eC\2305\350?\300\323s\332=\257\363?\177#\225\027\331\032\315\277\300\323s\332=\257\363?\004#\362\003\251\304\350\277\330\315}\n\2716\332\277\370\204\230\304\002\360\342\277V]\331/Me\000\300\224~\377\340M!\365\277\310K\357\217\247\212\352?\366\022\376&M\004\366?\306\242 \372\220\231\366?\025\240\035b7l\260?\004#\362\003\251\304\350\277\224~\377\340M!\365\277P/\201\267\342\013\340?\020\301KCO\231\356\277\224~\377\340M!\365\277\272\004\307\272\352\304\360?\216\257R\301\3726\362\277#\000\353G/w\360\277\370\204\230\304\002\360\342\277\370\204\230\304\002\360\342\277\300\323s\332=\257\363?\332\201\301\366?D\354\277LP\257\230\3728\276\277\330\315}\n\2716\332\277\330\315}\n\2716\332\277\211\"O\360xn\324?\020\301KCO\231\356\2773,\252\351\037`\351?G\343\304\243i\031\322?P/\201\267\342\013\340?\330\315}\n\2716\332\277\300\323s\332=\257\363?\375\354\037\235\020\013\347?P/\201\267\342\013\340?%\264.4\266\204\362?\365\320T\330{\342\320\277\n\017\257b\366K\002@\213\224\351\215.Z\361?\2272C\315\324.\367?\341\3147\343X\212\301?\224~\377\340M!\365\277lOiq\232\214\325\277[\363\270\200\305\331\364?\370\204\230\304\002\360\342\277\272\004\307\272\352\304\360?i\244\001\005\n+\n@\253\340\220\351\326\303\357\277\365\320T\330{\342\320\277\341\3147\343X\212\301?\020\301KCO\231\356\277\301\0370\356\266\241\361\277\177#\225\027\331\032\315\277LP\257\230\3728\276\277\2272C\315\324.\367?\211\"O\360xn\324?+\020\337$\2137\323\277i\003\255]!\232\347\277uS\206f\275\344\264\277\312a\331<\210\303\326?\025\240\035b7l\260?\322@z97n\374?\211\"O\360xn\324?\236\252\276\202>\n\356?\004#\362\003\251\304\350\277+\020\337$\2137\323\277\211\"O\360xn\324?\300\323s\332=\257\363?<\255\272h\000!\247\277\\\315\332\366\210\340\345?\370\204\230\304\002\360\342\277\315\275\211-]v\367\277\223\244\335j\212\032\344\277\341\3147\343X\212\301?]eS\036{\305\341\277\330\315}\n\2716\332\277?\312\003)\3064\357?\364\240c\211\227\030\331?P/\201\267\342\013\340?\222\014eC\2305\350?.\304\"\021\022E\345\277\323\2146M\260`\372\277\330\315}\n\2716\332\277\224~\377\340M!\365\277\\\315\332\366\210\340\345?\246\353\005@G\340\375\277\224~\377\340M!\365\277\330\315}\n\2716\332\277_\037x\"\266\302\335?o\357i\274n!\001@\302E\016x\363\232\340\277\272\004\307\272\352\304\360?\365\320T\330{\342\320\277\366\022\376&M\004\366?\211\"O\360xn\324?\236\252\276\202>\n\356?\330\315}\n\2716\332\277\312a\331<\210\303\326?\236\252\276\202>\n\356?ik46/\265\353?\341\3147\343X\212\301?\354\234F\224t\300\271?\240\034Y \364\365\372\277\365\320T\330{\342\320\277\332\201\301\366?D\354\277ik46/\265\353?G\343\304\243i\031\322?%\307\035yT\001\002@\024\245\200~\272p\310\277>\214\322\277\350_\234?\370\204\230\304\002\360\342\277\224~\377\340M!\365\277\004#\362\003\251\304\350\277\025\240\035b7l\260?\177#\225\027\331\032\315\277_\037x\"\266\302\335?P/\201\267\342\013\340?\211\"O\360xn\324?U$\014ar\357\361?G\343\304\243i\031\322?\025\240\035b7l\260?\364\240c\211\227\030\331?<\255\272h\000!\247\277\330\315}\n\2716\332\277\330\315}\n\2716\332\277\306\242 \372\220\231\366?\177#\225\027\331\032\315\277\240\034Y \364\365\372\277\341\3147\343X\212\301?\330\315}\n\2716\332\277_\037x\"\266\302\335?\316\343g\267\231o\346\277\004#\362\003\251\304\350\277\364\240c\211\227\030\331?V]\331/Me\000\300\332\236\3215:\341\002@\272\004\307\272\352\304\360?\235\001\360\354\'\031\372?<\255\272h\000!\247\277\235\001\360\354\'\031\372?\370\204\230\304\002\360\342\277\270\311`\025\226\336\312?\370\204\230\304\002\360\342\277\370\204\230\304\002\360\342\277\213\224\351\215.Z\361?\332\201\301\366?D\354\277\370\204\230\304\002\360\342\277\240\034Y \364\365\372\277\005\375\023zl\313\371\277\232M\254\000\241\013\370\277\020\301KCO\231\356\277\306\242 \372\220\231\366?uS\206f\275\344\264\277\r\r\010W\310\213\334\277h\335\316\323\344\240\370\277=\177\214\217\262\266\001@\330\315}\n\2716\332\277\216\257R\301\3726\362\277\341\3147\343X\212\301?\300\323s\332=\257\363?\300\346b\037\334+\003@\232M\254\000\241\013\370\277\'\216P\252y\213\343?G\343\304\243i\031\322?\r\r\010W\310\213\334\277\312a\331<\210\303\326?\020\301KCO\231\356\277\300\323s\332=\257\363?\331\304\257\277v\332\001\300\177#\225\027\331\032\315\277\177#\225\027\331\032\315\277\177#\225\027\331\032\315\277\341\3147\343X\212\301?\300\323s\332=\257\363?\301\0370\356\266\241\361\277\211\"O\360xn\324?P/\201\267\342\013\340?;\316\242\021\030\342\201\277\375\354\037\235\020\013\347?>\214\322\277\350_\234?\330\017\'Y\212X\377?<\255\272h\000!\247\277\330\017\'Y\212X\377?\232M\254\000\241\013\370\277ik46/\265\353?P/\201\267\342\013\340?\365\320T\330{\342\320\277<\255\272h\000!\247\277ik46/\265\353?\240\034Y \364\365\372\277\370\204\230\304\002\360\342\277m`\277\337\276\230\375?V]\331/Me\000\300\341\3147\343X\212\301?\341\3147\343X\212\301?\224~\377\340M!\365\277\177#\225\027\331\032\315\277\216\257R\301\3726\362\277<\255\272h\000!\247\277\370\204\230\304\002\360\342\277ik46/\265\353?P/\201\267\342\013\340?\341\3147\343X\212\301?\253\340\220\351\326\303\357\277\341\3147\343X\212\301?\177#\225\027\331\032\315\277\330\315}\n\2716\332\277\330\017\'Y\212X\377?\004#\362\003\251\304\350\277\341\3147\343X\212\301?\302E\016x\363\232\340\277h\335\316\323\344\240\370\277\341\3147\343X\212\301?\177#\225\027\331\032\315\277G\343\304\243i\031\322?\330\315}\n\2716\332\277\211\"O\360xn\324?\206n\013\004\362`\342?<\255\272h\000!\247\277\'\216P\252y\213\343?\270\311`\025\226\336\312?\322@z97n\374?\341\3147\343X\212\301?3,\252\351\037`\351?lOiq\232\214\325\277\223\244\335j\212\032\344\277\216\257R\301\3726\362\277<\255\272h\000!\247\277\341\3147\343X\212\301?\330\315}\n\2716\332\277i\003\255]!\232\347\277\020\301KCO\231\356\277\224~\377\340M!\365\277\004#\362\003\251\304\350\277P/\201\267\342\013\340?U$\014ar\357\361?\213\224\351\215.Z\361?dKL|w4\306?\374\341\252F\240\356\370?>\214\322\277\350_\234?V]\331/Me\000\300\\\315\332\366\210\340\345?\332\201\301\366?D\354\277\020\301KCO\231\356\277\371^\272:\306\366\363\277\330\315}\n\2716\332\277\r\r\010W\310\213\334\277G\343\304\243i\031\322?\300\346b\037\334+\003@\177#\225\027\331\032\315\277\240\034Y \364\365\372\277\365\320T\330{\342\320\277\211\"O\360xn\324?\004#\362\003\251\304\350\277\r\r\010W\310\213\334\277\361N\306]j6\341?\020\301KCO\231\356\277\224~\377\340M!\365\277<\255\272h\000!\247\277\330\017\'Y\212X\377?\306\242 \372\220\231\366?\004#\362\003\251\304\350\277\307\356\334\r\n\214\364\277\337\223\\\337\311\304\004\300\004#\362\003\251\304\350\277\004#\362\003\251\304\350\277\365\320T\330{\342\320\277\274\255\225P\001\266\344?ik46/\265\353?\330\017\'Y\212X\377?_\037x\"\266\302\335?\330\315}\n\2716\332\277{\215\303\373\024\366\006@\330\315}\n\2716\332\277<\255\272h\000!\247\277[\363\270\200\305\331\364?\t\213y\334\266\337\354?G\343\304\243i\031\322?\237B7\2520\357\351\277\330\315}\n\2716\332\277\300\323s\332=\257\363?\270\311`\025\226\336\312?\211\"O\360xn\324?uS\206f\275\344\264\277\020\301KCO\231\356\277\237B7\2520\357\351\277\002\261Wf\363\330\373?\240\034Y \364\365\372\277\331\304\257\277v\332\001\300\332\201\301\366?D\354\277CL\222\243\327\340\336\277\366\022\376&M\004\366?\251&l\345\233\306\303\277\206n\013\004\362`\342?\330\315}\n\2716\332\277P/\201\267\342\013\340?\213\224\351\215.Z\361?\216\257R\301\3726\362\277\004#\362\003\251\304\350\277\272\004\307\272\352\304\360?.\304\"\021\022E\345\277+\020\337$\2137\323\277\341\3147\343X\212\301?\370\204\230\304\002\360\342\277\\\315\332\366\210\340\345?"
      }
    }
  }
}
node {
  name: "normalize_element/component_1"
  op: "Const"
  device: "/device:CPU:0"
  attr {
    key: "_output_shapes"
    value {
      list {
        shape {
          dim {
            size: 313
          }
        }
      }
    }
  }
  attr {
    key: "dtype"
    value {
      type: DT_DOUBLE
    }
  }
  attr {
    key: "value"
    value {
      tensor {
        dtype: DT_DOUBLE
        tensor_shape {
          dim {
            size: 313
          }
        }
        tensor_content: "\372N9\016N\205\322?\372N9\016N\205\322?,\t\314:\341\240\354\277\372N9\016N\205\322?\023\254\202\244\027\223\367?,\t\314:\341\240\354\277,\t\314:\341\240\354\277\023\254\202\244\027\223\367?\023\254\202\244\027\223\367?\372N9\016N\205\322?,\t\314:\341\240\354\277,\t\314:\341\240\354\277\023\254\202\244\027\223\367?\023\254\202\244\027\223\367?\023\254\202\244\027\223\367?,\t\314:\341\240\354\277,\t\314:\341\240\354\277,\t\314:\341\240\354\277\372N9\016N\205\322?\023\254\202\244\027\223\367?\023\254\202\244\027\223\367?,\t\314:\341\240\354\277\023\254\202\244\027\223\367?\023\254\202\244\027\223\367?,\t\314:\341\240\354\277\3000\340\255R\311\367\277\023\254\202\244\027\223\367?,\t\314:\341\240\354\277\023\254\202\244\027\223\367?,\t\314:\341\240\354\277\023\254\202\244\027\223\367?,\t\314:\341\240\354\277\023\254\202\244\027\223\367?\372N9\016N\205\322?\372N9\016N\205\322?\023\254\202\244\027\223\367?\372N9\016N\205\322?,\t\314:\341\240\354\277,\t\314:\341\240\354\277\023\254\202\244\027\223\367?\372N9\016N\205\322?,\t\314:\341\240\354\277,\t\314:\341\240\354\277,\t\314:\341\240\354\277,\t\314:\341\240\354\277,\t\314:\341\240\354\277,\t\314:\341\240\354\277,\t\314:\341\240\354\277,\t\314:\341\240\354\277\023\254\202\244\027\223\367?,\t\314:\341\240\354\277,\t\314:\341\240\354\277\372N9\016N\205\322?,\t\314:\341\240\354\277,\t\314:\341\240\354\277\372N9\016N\205\322?,\t\314:\341\240\354\277\023\254\202\244\027\223\367?\023\254\202\244\027\223\367?\372N9\016N\205\322?\023\254\202\244\027\223\367?,\t\314:\341\240\354\277\372N9\016N\205\322?,\t\314:\341\240\354\277,\t\314:\341\240\354\277,\t\314:\341\240\354\277\372N9\016N\205\322?\372N9\016N\205\322?\372N9\016N\205\322?,\t\314:\341\240\354\277,\t\314:\341\240\354\277,\t\314:\341\240\354\277\023\254\202\244\027\223\367?,\t\314:\341\240\354\277,\t\314:\341\240\354\277,\t\314:\341\240\354\277,\t\314:\341\240\354\277,\t\314:\341\240\354\277,\t\314:\341\240\354\277,\t\314:\341\240\354\277\023\254\202\244\027\223\367?,\t\314:\341\240\354\277,\t\314:\341\240\354\277,\t\314:\341\240\354\277,\t\314:\341\240\354\277\372N9\016N\205\322?,\t\314:\341\240\354\277\372N9\016N\205\322?,\t\314:\341\240\354\277\023\254\202\244\027\223\367?,\t\314:\341\240\354\277\023\254\202\244\027\223\367?,\t\314:\341\240\354\277\023\254\202\244\027\223\367?\023\254\202\244\027\223\367?,\t\314:\341\240\354\277\372N9\016N\205\322?,\t\314:\341\240\354\277,\t\314:\341\240\354\277\372N9\016N\205\322?\023\254\202\244\027\223\367?,\t\314:\341\240\354\277,\t\314:\341\240\354\277,\t\314:\341\240\354\277\372N9\016N\205\322?\372N9\016N\205\322?\372N9\016N\205\322?\372N9\016N\205\322?\372N9\016N\205\322?\257a\2573:^\323\277\023\254\202\244\027\223\367?,\t\314:\341\240\354\277\023\254\202\244\027\223\367?,\t\314:\341\240\354\277\372N9\016N\205\322?,\t\314:\341\240\354\277\372N9\016N\205\322?,\t\314:\341\240\354\277\023\254\202\244\027\223\367?\023\254\202\244\027\223\367?\023\254\202\244\027\223\367?\372N9\016N\205\322?\023\254\202\244\027\223\367?,\t\314:\341\240\354\277,\t\314:\341\240\354\277,\t\314:\341\240\354\277\372N9\016N\205\322?,\t\314:\341\240\354\277,\t\314:\341\240\354\277\372N9\016N\205\322?,\t\314:\341\240\354\277,\t\314:\341\240\354\277\023\254\202\244\027\223\367?\372N9\016N\205\322?\372N9\016N\205\322?\023\254\202\244\027\223\367?\372N9\016N\205\322?,\t\314:\341\240\354\277,\t\314:\341\240\354\277\023\254\202\244\027\223\367?\3000\340\255R\311\367\277,\t\314:\341\240\354\277\023\254\202\244\027\223\367?,\t\314:\341\240\354\277\023\254\202\244\027\223\367?,\t\314:\341\240\354\277,\t\314:\341\240\354\277\257a\2573:^\323\277,\t\314:\341\240\354\277,\t\314:\341\240\354\277,\t\314:\341\240\354\277,\t\314:\341\240\354\277,\t\314:\341\240\354\277\023\254\202\244\027\223\367?\023\254\202\244\027\223\367?\023\254\202\244\027\223\367?\023\254\202\244\027\223\367?\023\254\202\244\027\223\367?\023\254\202\244\027\223\367?,\t\314:\341\240\354\277,\t\314:\341\240\354\277,\t\314:\341\240\354\277\372N9\016N\205\322?,\t\314:\341\240\354\277,\t\314:\341\240\354\277\023\254\202\244\027\223\367?,\t\314:\341\240\354\277,\t\314:\341\240\354\277,\t\314:\341\240\354\277\023\254\202\244\027\223\367?,\t\314:\341\240\354\277,\t\314:\341\240\354\277,\t\314:\341\240\354\277,\t\314:\341\240\354\277\023\254\202\244\027\223\367?\372N9\016N\205\322?\023\254\202\244\027\223\367?\372N9\016N\205\322?\372N9\016N\205\322?\372N9\016N\205\322?\023\254\202\244\027\223\367?,\t\314:\341\240\354\277\372N9\016N\205\322?,\t\314:\341\240\354\277,\t\314:\341\240\354\277,\t\314:\341\240\354\277,\t\314:\341\240\354\277,\t\314:\341\240\354\277\372N9\016N\205\322?,\t\314:\341\240\354\277,\t\314:\341\240\354\277\023\254\202\244\027\223\367?,\t\314:\341\240\354\277\372N9\016N\205\322?\023\254\202\244\027\223\367?\372N9\016N\205\322?,\t\314:\341\240\354\277\023\254\202\244\027\223\367?\023\254\202\244\027\223\367?,\t\314:\341\240\354\277\023\254\202\244\027\223\367?,\t\314:\341\240\354\277,\t\314:\341\240\354\277\023\254\202\244\027\223\367?,\t\314:\341\240\354\277\023\254\202\244\027\223\367?\372N9\016N\205\322?,\t\314:\341\240\354\277,\t\314:\341\240\354\277\372N9\016N\205\322?\372N9\016N\205\322?,\t\314:\341\240\354\277\372N9\016N\205\322?,\t\314:\341\240\354\277\372N9\016N\205\322?,\t\314:\341\240\354\277\372N9\016N\205\322?\372N9\016N\205\322?,\t\314:\341\240\354\277\023\254\202\244\027\223\367?,\t\314:\341\240\354\277,\t\314:\341\240\354\277,\t\314:\341\240\354\277,\t\314:\341\240\354\277,\t\314:\341\240\354\277\372N9\016N\205\322?\372N9\016N\205\322?,\t\314:\341\240\354\277\372N9\016N\205\322?,\t\314:\341\240\354\277\372N9\016N\205\322?,\t\314:\341\240\354\277,\t\314:\341\240\354\277,\t\314:\341\240\354\277\023\254\202\244\027\223\367?\023\254\202\244\027\223\367?\372N9\016N\205\322?\023\254\202\244\027\223\367?\372N9\016N\205\322?,\t\314:\341\240\354\277\023\254\202\244\027\223\367?\023\254\202\244\027\223\367?\372N9\016N\205\322?\372N9\016N\205\322?,\t\314:\341\240\354\277,\t\314:\341\240\354\277\257a\2573:^\323\277,\t\314:\341\240\354\277\023\254\202\244\027\223\367?,\t\314:\341\240\354\277,\t\314:\341\240\354\277\023\254\202\244\027\223\367?,\t\314:\341\240\354\277,\t\314:\341\240\354\277,\t\314:\341\240\354\277,\t\314:\341\240\354\277\023\254\202\244\027\223\367?,\t\314:\341\240\354\277\023\254\202\244\027\223\367?,\t\314:\341\240\354\277\372N9\016N\205\322?\023\254\202\244\027\223\367?,\t\314:\341\240\354\277\372N9\016N\205\322?\023\254\202\244\027\223\367?\023\254\202\244\027\223\367?\023\254\202\244\027\223\367?\372N9\016N\205\322?,\t\314:\341\240\354\277,\t\314:\341\240\354\277\023\254\202\244\027\223\367?\023\254\202\244\027\223\367?\372N9\016N\205\322?\023\254\202\244\027\223\367?,\t\314:\341\240\354\277,\t\314:\341\240\354\277\372N9\016N\205\322?\372N9\016N\205\322?,\t\314:\341\240\354\277,\t\314:\341\240\354\277,\t\314:\341\240\354\277\023\254\202\244\027\223\367?,\t\314:\341\240\354\277\372N9\016N\205\322?,\t\314:\341\240\354\277\372N9\016N\205\322?\372N9\016N\205\322?,\t\314:\341\240\354\277\023\254\202\244\027\223\367?,\t\314:\341\240\354\277\372N9\016N\205\322?\372N9\016N\205\322?\372N9\016N\205\322?\023\254\202\244\027\223\367?,\t\314:\341\240\354\277\023\254\202\244\027\223\367?\023\254\202\244\027\223\367?,\t\314:\341\240\354\277\023\254\202\244\027\223\367?,\t\314:\341\240\354\277,\t\314:\341\240\354\277\372N9\016N\205\322?,\t\314:\341\240\354\277\372N9\016N\205\322?,\t\314:\341\240\354\277\023\254\202\244\027\223\367?\023\254\202\244\027\223\367?,\t\314:\341\240\354\277\372N9\016N\205\322?,\t\314:\341\240\354\277,\t\314:\341\240\354\277\023\254\202\244\027\223\367?,\t\314:\341\240\354\277"
      }
    }
  }
}
node {
  name: "normalize_element/component_2"
  op: "Const"
  device: "/device:CPU:0"
  attr {
    key: "_output_shapes"
    value {
      list {
        shape {
          dim {
            size: 313
          }
        }
      }
    }
  }
  attr {
    key: "dtype"
    value {
      type: DT_DOUBLE
    }
  }
  attr {
    key: "value"
    value {
      tensor {
        dtype: DT_DOUBLE
        tensor_shape {
          dim {
            size: 313
          }
        }
        tensor_content: "\206\313\277\344\354\246\340?\364\036\310\377\361)\326?\366\377Z\323AJ\353\277\364\036\310\377\361)\326?Ku\363\253\356\210\377?\250\261)\347:c\341\277nh*\375sb\356\277\035\360lCq\314\367?c\365G\022,_\360?\032\037\314\237\256 \343?&\370f\003gD\347\277h\212\274\nz\231\353\277\035\360lCq\314\367?~\\6\325\220\347\374?c\365G\022,_\360?\346r\336J\213\014\361\277\260\234d(lI\362\277\354PL=\205\325\363\277\267\022,;!\337\242?W\265\035_\r\364\367?Ku\363\253\356\210\377?h\212\274\nz\231\353\277\366HT\315\355\330\362?Ku\363\253\356\210\377?\250\261)\347:c\341\277z\306\352\005M\206\363\277c\365G\022,_\360?\264m\005\314.\365\346\277Ku\363\253\356\210\377?\222\302\360\235_\203\361\277\366HT\315\355\330\362?M\237\177y\3527\354\277\366HT\315\355\330\362?\362\345\3005\323\017\337\277\322\210\365\2354\360\221?\366HT\315\355\330\362?\032\037\314\237\256 \343?\310\230j\300~F\360\277\0378\217f\'4\361\277W\265\035_\r\364\367?\206\313\277\344\354\246\340?\310\230j\300~F\360\277nh*\375sb\356\277:#\314\367\266\225\360\277M\237\177y\3527\354\277\231\202\310:\237\223\347\277\231\202\310:\237\223\347\277,\326\324\365`\r\352\277\264m\005\314.\365\346\277Ku\363\253\356\210\377?M\237\177y\3527\354\277\0378\217f\'4\361\277\346)\345P\337}\331\277nh*\375sb\356\277\341\362\2134\254\261\356\277\233c[\016\357\263\314\277M\237\177y\3527\354\277c\365G\022,_\360?\016EZe\000\326\360?F\032\375\260)r\321\277 \3759\222\250\351\345?\027\311\005W\313t\355\277\327\372\203\244C\256\337\277\366\377Z\323AJ\353\277V\360r3\214>\343\277\250\261)\347:c\341\277\261\214r\370\336\324\321?\261\214r\370\336\324\321?\017\n\005\221\201\213\325?\310\230j\300~F\360\277\341\362\2134\254\261\356\277\341\362\2134\254\261\356\277\035\360lCq\314\367?\237`6-\231\\\352\277nh*\375sb\356\277\341\362\2134\254\261\356\277w\327\263\014\320!\362\277\310\230j\300~F\360\277G\301\021\207\360n\351\277\344e\021\374S\357\342\277\325\177\251Id\256\360?y}\361\013\241\367\333\277\341\362\2134\254\261\356\277\231\202\310:\237\223\347\277\231\202\310:\237\223\347\277\267\022,;!\337\242?\250\261)\347:c\341\277\261\214r\370\336\324\321?\310\230j\300~F\360\277Ku\363\253\356\210\377?\341\362\2134\254\261\356\277Ku\363\253\356\210\377?\231\202\310:\237\223\347\277c\365G\022,_\360?\035\360lCq\314\367?\341\362\2134\254\261\356\277\017\n\005\221\201\213\325?\001^\033\334\032n\360\277M\237\177y\3527\354\277\206\313\277\344\354\246\340?\035\360lCq\314\367?\013\r*r\327\342\347\277\264m\005\314.\365\346\277\310\230j\300~F\360\277\206\313\277\344\354\246\340?\261\214r\370\336\324\321?\267\022,;!\337\242?\206\313\277\344\354\246\340?\261\214r\370\336\324\321?\256\217\227\3314,\344\277K\352vO\274\005\004@:#\314\367\266\225\360\277\366HT\315\355\330\362?y}\361\013\241\367\333\277\206\313\277\344\354\246\340?\362\345\3005\323\017\337\277\032\037\314\237\256 \343?\310\230j\300~F\360\277\201\317\273\2348%\361?\201\317\273\2348%\361?\366HT\315\355\330\362?\017\n\005\221\201\213\325?\201\317\273\2348%\361?w\327\263\014\320!\362\277\341\362\2134\254\261\356\277\264m\005\314.\365\346\277\261\214r\370\336\324\321?\341\362\2134\254\261\356\277\250\261)\347:c\341\277F\032\375\260)r\321\277nh*\375sb\356\277\001^\033\334\032n\360\277\366HT\315\355\330\362?\206\313\277\344\354\246\340?\364\036\310\377\361)\326?\035\360lCq\314\367?\322\210\365\2354\360\221?h\212\274\nz\231\353\277\366\377Z\323AJ\353\277\366HT\315\355\330\362?z\306\352\005M\206\363\277\001\025\"\342n\337\330\277K\352vO\274\005\004@nh*\375sb\356\277\325\177\251Id\256\360?y}\361\013\241\367\333\277h\212\274\nz\231\353\277\271\301\035g&S\300\277b\254N\030\200\320\350\277,\326\324\365`\r\352\277&\370f\003gD\347\277b\254N\030\200\320\350\277,\326\324\365`\r\352\277\016EZe\000\326\360?Z\244TX\212X\371?c\346|\347\316\002\002@c\365G\022,_\360?\325\177\251Id\256\360?\035\360lCq\314\367?\231\202\310:\237\223\347\277\250\261)\347:c\341\277nh*\375sb\356\277F\032\375\260)r\321\277\001^\033\334\032n\360\277\231\202\310:\237\223\347\277Ku\363\253\356\210\377?\310\230j\300~F\360\277w\327\263\014\320!\362\277\0378\217f\'4\361\277c\346|\347\316\002\002@y}\361\013\241\367\333\277y}\361\013\241\367\333\277\001\025\"\342n\337\330\277nh*\375sb\356\277Z\244TX\212X\371?\261\214r\370\336\324\321?Ku\363\253\356\210\377?\206\313\277\344\354\246\340? \327&\212;\327\233?\017\n\005\221\201\213\325?c\365G\022,_\360?@\001:\352\260^\363\277\233c[\016\357\263\314\277\"\'\306_\244\230\362\277\013\r*r\327\342\347\277\250\261)\347:c\341\277y}\361\013\241\367\333\277\344e\021\374S\357\342\277\206\313\277\344\354\246\340?\272Ks\276(\276\351\277@\001:\352\260^\363\277\035\360lCq\314\367?S}\355k\344\000\357\277\206\313\277\344\354\246\340?c\365G\022,_\360?\364\036\310\377\361)\326?,\326\324\365`\r\352\277Z\244TX\212X\371?c\365G\022,_\360?nh*\375sb\356\277c\346|\347\316\002\002@w\327\263\014\320!\362\277\344e\021\374S\357\342\277\035\360lCq\314\367?\310\230j\300~F\360\277\016EZe\000\326\360?\322\210\365\2354\360\221?\272Ks\276(\276\351\277\007<\211\316\0247\363\277\364\036\310\377\361)\326?\267\022,;!\337\242?\344e\021\374S\357\342\277\364\036\310\377\361)\326?\231\202\310:\237\223\347\277.\267g\311\260-\317\277\341\362\2134\254\261\356\277\001\025\"\342n\337\330\277\364\036\310\377\361)\326?V\360r3\214>\343\277\035\360lCq\314\367?\341\362\2134\254\261\356\277\013\r*r\327\342\347\277\346r\336J\213\014\361\277s\350|\023S\275\360\277y}\361\013\241\367\333\277\364\036\310\377\361)\326?\001\025\"\342n\337\330\277:#\314\367\266\225\360\277\206\313\277\344\354\246\340?\341\362\2134\254\261\356\277\364\036\310\377\361)\326?\341\362\2134\254\261\356\277nh*\375sb\356\277\336\207\243\tZ&\340\277\035\360lCq\314\367?\3763\217\016\037\277\343?\206\313\277\344\354\246\340?\035\360lCq\314\367?\276\202\314\332[\212\324\277\344e\021\374S\357\342\277\035\360lCq\314\367?\343HR}\217]\344?\343HR}\217]\344?\261\214r\370\336\324\321?\0378\217f\'4\361\277\004MR\325\227\322\361\277&\370f\003gD\347\277&\370f\003gD\347\277K\352vO\274\005\004@\021\353\227d\321\253\352\277y}\361\013\241\367\333\277\035\360lCq\314\367?\341\362\2134\254\261\356\277&\370f\003gD\347\277\001\025\"\342n\337\330\277\341\362\2134\254\261\356\277\3763\217\016\037\277\343?&\370f\003gD\347\277\366HT\315\355\330\362?\250\261)\347:c\341\277\261\214r\370\336\324\321?\366HT\315\355\330\362?nh*\375sb\356\277\267\022,;!\337\242?W\265\035_\r\364\367?\325\177\251Id\256\360?\325\177\251Id\256\360?\017\n\005\221\201\213\325?\250\261)\347:c\341\277V\360r3\214>\343\277\035\360lCq\314\367?\016\301\013\227\325\374\375?\032\037\314\237\256 \343?W\265\035_\r\364\367?\013\r*r\327\342\347\277\310\230j\300~F\360\277\032\037\314\237\256 \343?\206\313\277\344\354\246\340?b\254N\030\200\320\350\277&\370f\003gD\347\277\341\362\2134\254\261\356\277c\365G\022,_\360?nh*\375sb\356\277\017\n\005\221\201\213\325?\250\261)\347:c\341\277L\025*\"\350\314\302\277\017\n\005\221\201\213\325?\341\362\2134\254\261\356\277\3763\217\016\037\277\343?\310\230j\300~F\360\277\261\214r\370\336\324\321?\017\n\005\221\201\213\325?\364\036\310\377\361)\326?c\365G\022,_\360?5\'\310\257\002\024\341\277\036#\311\177\251\334\002@Ku\363\253\356\210\377?M\237\177y\3527\354\277W\265\035_\r\364\367?\0378\217f\'4\361\277\366\377Z\323AJ\353\277\261\214r\370\336\324\321?M\237\177y\3527\354\277\206\313\277\344\354\246\340?w\327\263\014\320!\362\277Ku\363\253\356\210\377?\366HT\315\355\330\362?\264m\005\314.\365\346\277\362\345\3005\323\017\337\277\013\r*r\327\342\347\277y}\361\013\241\367\333\277\366HT\315\355\330\362?\300)\341\260\"\207\354\277"
      }
    }
  }
}
node {
  name: "normalize_element/component_3"
  op: "Const"
  device: "/device:CPU:0"
  attr {
    key: "_output_shapes"
    value {
      list {
        shape {
          dim {
            size: 313
          }
        }
      }
    }
  }
  attr {
    key: "dtype"
    value {
      type: DT_DOUBLE
    }
  }
  attr {
    key: "value"
    value {
      tensor {
        dtype: DT_DOUBLE
        tensor_shape {
          dim {
            size: 313
          }
        }
        tensor_content: "\020\361\002\220\313\235\276\2778\201\032d\267\220\310?\307\2173f\253H\323\277\377\016\267\013\237D\330\277\r\254u\021\326<\375?\332d_\235\374\361\324\277f\233L5\216E\345\277+\243M\373e\344\204?\366\035\221\311\010\030\345?\356,k\207r\353\301?\324\277\220WOD\321?\377\016\267\013\237D\330\277\001\356\254\363\364\306\360?\266\341~\2140)\373?m3\373-`C\344?u\267\277[cs\360\277\361+\016O\253\331\365\277\277\013o8\250\030\367\277.\034\311\217\232I\340\277\'\230\004b\227\031\364?Y\270\243x\232\332\362?(\005fv*\026\353\277Y\270\243x\232\332\362?\r\254u\021\326<\375?\360\205\342\3206\032\346\277\020\361\002\220\313\235\276\277\312\\\326A\366\221\354?Jcf\350\343\351\336\277Y\270\243x\232\332\362?\207\214\353\222\264\034\362\277TGl\335\236f\355?\0250:?\331l\351\277Y\270\243x\232\332\362?\370v\010\023\315F\311\277C\313\267\357\021\354\317\277Y\270\243x\232\332\362?C\313\267\357\021\354\317\277\314\201\266\340\010\207\362\277:\332\221\255{\277\354\277\024\303\330*Fp\362?\323\314\260\244*\364\305\277M\257\275\344\314h\356\277\376\241U\367\013H\361\277\314\201\266\340\010\207\362\277\376\241U\367\013H\361\277$\271\016zA\227\333\277f\233L5\216E\345\277$\271\016zA\227\333\277Jcf\350\343\351\336\277\r\254u\021\326<\375?\376\241U\367\013H\361\277u\267\277[cs\360\277\366\271\220\361,\316\257?M\257\275\344\314h\356\277\361+\016O\253\331\365\277\324\277\220WOD\321?:\332\221\255{\277\354\277TGl\335\236f\355?TGl\335\236f\355?\347\224\274\216\240\355\322?H\211\243\277\275\360\340?A\361\364\306\353\362\341\277\002[\016\010\210\303\347\277\264\272\007/Z\237\321\277C\313\267\357\021\354\317\277(\005fv*\026\353\277\020\361\002\220\313\235\276\277.\034\311\217\232I\340\277+\243M\373e\344\204?:\332\221\255{\277\354\277$\271\016zA\227\333\277\214E\244\2430\230\350\277\260\202\232\375?\356\364?\335\260\266\231\345p\344\277A\361\364\306\353\362\341\277$\271\016zA\227\333\277\326\231S\200u=\357\277\2556C\001Wo\365\277\3549\213\324M\233\326\277\270\006_+C\036\341\2772\351kk\345\222\331?\377\016\267\013\237D\330\277\360\205\342\3206\032\346\277\370v\010\023\315F\311\277\0250:?\331l\351\277.\034\311\217\232I\340\277A\361\364\306\353\362\341\277\020\361\002\220\313\235\276\277\326\231S\200u=\357\277evl\226{P\377?\360\205\342\3206\032\346\277\266\341~\2140)\373?\214E\244\2430\230\350\277TGl\335\236f\355?_\027\210\007\213\025\371?$\271\016zA\227\333\277+\243M\373e\344\204?\004\001:\206\374\202\367\277\0250:?\331l\351\277+\243M\373e\344\204?\260\202\232\375?\356\364?\312\333\212b\224\307\342\277Jcf\350\343\351\336\277M\257\275\344\314h\356\277$\271\016zA\227\333\277\356,k\207r\353\301?C\313\267\357\021\354\317\277\020\361\002\220\313\235\276\277C\313\267\357\021\354\317\277`\350\351\363\371[\245\277\274\311\214\241\246\000\t@\261\357\373\021\323\352\353\277Y\270\243x\232\332\362?\377\016\267\013\237D\330\277\356,k\207r\353\301?\326\231S\200u=\357\2772\351kk\345\222\331?\326\231S\200u=\357\277\366\035\221\311\010\030\345?\366\035\221\311\010\030\345?Y\270\243x\232\332\362?\356,k\207r\353\301?\341\317#\325\210\317\003@UlL|\261[\363\277\332d_\235\374\361\324\277\335\260\266\231\345p\344\277\356,k\207r\353\301?\326\231S\200u=\357\277\022\344\342B\360\355\331\2772\351kk\345\222\331?:\332\221\255{\277\354\277\214E\244\2430\230\350\277Y\270\243x\232\332\362?(\005fv*\026\353\277\020\361\002\220\313\235\276\277evl\226{P\377?C\313\267\357\021\354\317\277\214E\244\2430\230\350\277:\332\221\255{\277\354\277\001\356\254\363\364\306\360?\370v\010\023\315F\311\277+\243M\373e\344\204?\274\311\214\241\246\000\t@\314\201\266\340\010\207\362\277qu\335\304a[\002@\377\016\267\013\237D\330\277Jcf\350\343\351\336\277ypxl\337\356\346\277\377\016\267\013\237D\330\277.\034\311\217\232I\340\277\356,k\207r\353\301?\214E\244\2430\230\350\277$\271\016zA\227\333\277\001\356\254\363\364\306\360?d\377\225\034\001\355\006@\364\244O\014\332x\005@\312\\\326A\366\221\354?Y\270\243x\232\332\362?\001\356\254\363\364\306\360?7\216:\261\222@\335\277$\271\016zA\227\333\2770\302\364\r\017\t\360\277\t\363\274\000Z\301\346?\004\001:\206\374\202\367\277$\271\016zA\227\333\277\350\001\036\2433\352\371?M\257\275\344\314h\356\277\326\231S\200u=\357\277\361+\016O\253\331\365\277\234\332X\2074e\003@\377\016\267\013\237D\330\277\270\006_+C\036\341\277\332d_\235\374\361\324\277M\257\275\344\314h\356\277\266\341~\2140)\373?C\313\267\357\021\354\317\277Y\270\243x\232\332\362?\020\361\002\220\313\235\276\277\377\016\267\013\237D\330\277\356,k\207r\353\301?TGl\335\236f\355?u\267\277[cs\360\277\356,k\207r\353\301?\361+\016O\253\331\365\277\370v\010\023\315F\311\277Jcf\350\343\351\336\277.\034\311\217\232I\340\277\270\006_+C\036\341\277\360\205\342\3206\032\346\277C\313\267\357\021\354\317\277u\267\277[cs\360\277_\027\210\007\213\025\371?\304\304\'I$\224\355\277\020\361\002\220\313\235\276\277\366\035\221\311\010\030\345?\020\361\002\220\313\235\276\277$\271\016zA\227\333\277\r\254u\021\326<\375?TGl\335\236f\355?u\267\277[cs\360\277\234\332X\2074e\003@\326\231S\200u=\357\277\270\006_+C\036\341\277_\027\210\007\213\025\371?\326\231S\200u=\357\277\001\356\254\363\364\306\360?C\313\267\357\021\354\317\277C\313\267\357\021\354\317\277\304\304\'I$\224\355\277\377\016\267\013\237D\330\277.\034\311\217\232I\340\277\270\006_+C\036\341\277\020\361\002\220\313\235\276\277\370v\010\023\315F\311\277\370v\010\023\315F\311\277\215\353\317!\245W\370\277W\223\303\331\207\345\334?\020\361\002\220\313\235\276\277C\313\267\357\021\354\317\277\266\341~\2140)\373?\214E\244\2430\230\350\277\332d_\235\374\361\324\277\271\254\212\251\267\335\360\277\002[\016\010\210\303\347\277\377\016\267\013\237D\330\277\377\016\267\013\237D\330\277F\261wU[\214\266?C\227 E`\262\361\277\356,k\207r\353\301?\215\353\317!\245W\370\277\020\361\002\220\313\235\276\277\326\231S\200u=\357\277\002[\016\010\210\303\347\277\036!`\201o\231\314\277evl\226{P\377?\356,k\207r\353\301?+\243M\373e\344\204?Y\270\243x\232\332\362?H\211\243\277\275\360\340?\270\006_+C\036\341\277\001\356\254\363\364\306\360?\356,k\207r\353\301?.\034\311\217\232I\340\277\377\016\267\013\237D\330\277:\332\221\255{\277\354\277\314\201\266\340\010\207\362\277\326\231S\200u=\357\277\324\277\220WOD\321?\274\311\214\241\246\000\t@7\216:\261\222@\335\277\377\016\267\013\237D\330\277\001\356\254\363\364\306\360?\261\357\373\021\323\352\353\2778\201\032d\267\220\310?+\243M\373e\344\204?\214E\244\2430\230\350\277\377\016\267\013\237D\330\277\335\260\266\231\345p\344\277Y\270\243x\232\332\362?\332d_\235\374\361\324\277+\243M\373e\344\204?8\232\032Z.\343\005@\335\260\266\231\345p\344\277$\271\016zA\227\333\277\'\230\004b\227\031\364?Y\270\243x\232\332\362?Y\270\243x\232\332\362?\356,k\207r\353\301?(\005fv*\026\353\277\036!`\201o\231\314\277evl\226{P\377?\212\005-P\343\273\001@\356,k\207r\353\301?\317\315\r\335\361\005\362?\370v\010\023\315F\311\277\2556C\001Wo\365\277\356,k\207r\353\301?(\005fv*\026\353\277T\306 \376<\234\343\277\323\314\260\244*\364\305\277hAx\263\002\005\365\277\270\207\252\n\245\350\352?\377\016\267\013\237D\330\277+\243M\373e\344\204?$\271\016zA\227\333\277\356,k\207r\353\301?_\027\210\007\213\025\371?\360\205\342\3206\032\346\277\356,k\207r\353\301?\326\231S\200u=\357\277+\243M\373e\344\204?\324\277\220WOD\321?\020\361\002\220\313\235\276\277m3\373-`C\344?\335\260\266\231\345p\344\277d\377\225\034\001\355\006@\347.\010dy\n\n@:\332\221\255{\277\354\277f\034\230\024\360\017\357?u\267\277[cs\360\277\214E\244\2430\230\350\277\020\361\002\220\313\235\276\277\214E\244\2430\230\350\277\020\361\002\220\313\235\276\277UlL|\261[\363\277\212\005-P\343\273\001@Y\270\243x\232\332\362?.\034\311\217\232I\340\2772\351kk\345\222\331?\020\361\002\220\313\235\276\277$\271\016zA\227\333\277Y\270\243x\232\332\362?C\313\267\357\021\354\317\277"
      }
    }
  }
}
node {
  name: "normalize_element/component_4"
  op: "Const"
  device: "/device:CPU:0"
  attr {
    key: "_output_shapes"
    value {
      list {
        shape {
          dim {
            size: 313
          }
        }
      }
    }
  }
  attr {
    key: "dtype"
    value {
      type: DT_INT64
    }
  }
  attr {
    key: "value"
    value {
      tensor {
        dtype: DT_INT64
        tensor_shape {
          dim {
            size: 313
          }
        }
        tensor_content: "G\000\000\000\000\000\000\000R\000\000\000\000\000\000\000J\000\000\000\000\000\000\000O\000\000\000\000\000\000\000G\000\000\000\000\000\000\000R\000\000\000\000\000\000\000L\000\000\000\000\000\000\000Q\000\000\000\000\000\000\000L\000\000\000\000\000\000\000K\000\000\000\000\000\000\000K\000\000\000\000\000\000\000F\000\000\000\000\000\000\000K\000\000\000\000\000\000\000F\000\000\000\000\000\000\000K\000\000\000\000\000\000\000P\000\000\000\000\000\000\000N\000\000\000\000\000\000\000I\000\000\000\000\000\000\000N\000\000\000\000\000\000\000G\000\000\000\000\000\000\000I\000\000\000\000\000\000\000P\000\000\000\000\000\000\000L\000\000\000\000\000\000\000G\000\000\000\000\000\000\000K\000\000\000\000\000\000\000P\000\000\000\000\000\000\000N\000\000\000\000\000\000\000G\000\000\000\000\000\000\000I\000\000\000\000\000\000\000J\000\000\000\000\000\000\000N\000\000\000\000\000\000\000R\000\000\000\000\000\000\000I\000\000\000\000\000\000\000M\000\000\000\000\000\000\000J\000\000\000\000\000\000\000G\000\000\000\000\000\000\000L\000\000\000\000\000\000\000N\000\000\000\000\000\000\000L\000\000\000\000\000\000\000M\000\000\000\000\000\000\000M\000\000\000\000\000\000\000R\000\000\000\000\000\000\000M\000\000\000\000\000\000\000P\000\000\000\000\000\000\000Q\000\000\000\000\000\000\000L\000\000\000\000\000\000\000R\000\000\000\000\000\000\000R\000\000\000\000\000\000\000H\000\000\000\000\000\000\000H\000\000\000\000\000\000\000R\000\000\000\000\000\000\000P\000\000\000\000\000\000\000I\000\000\000\000\000\000\000M\000\000\000\000\000\000\000R\000\000\000\000\000\000\000O\000\000\000\000\000\000\000O\000\000\000\000\000\000\000J\000\000\000\000\000\000\000L\000\000\000\000\000\000\000Q\000\000\000\000\000\000\000O\000\000\000\000\000\000\000L\000\000\000\000\000\000\000Q\000\000\000\000\000\000\000I\000\000\000\000\000\000\000N\000\000\000\000\000\000\000L\000\000\000\000\000\000\000L\000\000\000\000\000\000\000Q\000\000\000\000\000\000\000N\000\000\000\000\000\000\000G\000\000\000\000\000\000\000H\000\000\000\000\000\000\000M\000\000\000\000\000\000\000H\000\000\000\000\000\000\000M\000\000\000\000\000\000\000J\000\000\000\000\000\000\000I\000\000\000\000\000\000\000J\000\000\000\000\000\000\000K\000\000\000\000\000\000\000I\000\000\000\000\000\000\000R\000\000\000\000\000\000\000L\000\000\000\000\000\000\000O\000\000\000\000\000\000\000M\000\000\000\000\000\000\000H\000\000\000\000\000\000\000Q\000\000\000\000\000\000\000N\000\000\000\000\000\000\000K\000\000\000\000\000\000\000M\000\000\000\000\000\000\000P\000\000\000\000\000\000\000M\000\000\000\000\000\000\000M\000\000\000\000\000\000\000G\000\000\000\000\000\000\000P\000\000\000\000\000\000\000F\000\000\000\000\000\000\000H\000\000\000\000\000\000\000F\000\000\000\000\000\000\000M\000\000\000\000\000\000\000N\000\000\000\000\000\000\000Q\000\000\000\000\000\000\000K\000\000\000\000\000\000\000O\000\000\000\000\000\000\000R\000\000\000\000\000\000\000H\000\000\000\000\000\000\000R\000\000\000\000\000\000\000G\000\000\000\000\000\000\000O\000\000\000\000\000\000\000N\000\000\000\000\000\000\000I\000\000\000\000\000\000\000K\000\000\000\000\000\000\000N\000\000\000\000\000\000\000I\000\000\000\000\000\000\000N\000\000\000\000\000\000\000L\000\000\000\000\000\000\000R\000\000\000\000\000\000\000M\000\000\000\000\000\000\000P\000\000\000\000\000\000\000N\000\000\000\000\000\000\000R\000\000\000\000\000\000\000H\000\000\000\000\000\000\000F\000\000\000\000\000\000\000H\000\000\000\000\000\000\000Q\000\000\000\000\000\000\000F\000\000\000\000\000\000\000Q\000\000\000\000\000\000\000H\000\000\000\000\000\000\000J\000\000\000\000\000\000\000N\000\000\000\000\000\000\000M\000\000\000\000\000\000\000M\000\000\000\000\000\000\000L\000\000\000\000\000\000\000P\000\000\000\000\000\000\000J\000\000\000\000\000\000\000K\000\000\000\000\000\000\000K\000\000\000\000\000\000\000I\000\000\000\000\000\000\000I\000\000\000\000\000\000\000I\000\000\000\000\000\000\000R\000\000\000\000\000\000\000R\000\000\000\000\000\000\000M\000\000\000\000\000\000\000H\000\000\000\000\000\000\000N\000\000\000\000\000\000\000F\000\000\000\000\000\000\000L\000\000\000\000\000\000\000F\000\000\000\000\000\000\000P\000\000\000\000\000\000\000L\000\000\000\000\000\000\000O\000\000\000\000\000\000\000G\000\000\000\000\000\000\000R\000\000\000\000\000\000\000I\000\000\000\000\000\000\000J\000\000\000\000\000\000\000R\000\000\000\000\000\000\000N\000\000\000\000\000\000\000F\000\000\000\000\000\000\000H\000\000\000\000\000\000\000N\000\000\000\000\000\000\000I\000\000\000\000\000\000\000I\000\000\000\000\000\000\000H\000\000\000\000\000\000\000N\000\000\000\000\000\000\000N\000\000\000\000\000\000\000P\000\000\000\000\000\000\000P\000\000\000\000\000\000\000R\000\000\000\000\000\000\000I\000\000\000\000\000\000\000Q\000\000\000\000\000\000\000J\000\000\000\000\000\000\000L\000\000\000\000\000\000\000I\000\000\000\000\000\000\000R\000\000\000\000\000\000\000Q\000\000\000\000\000\000\000Q\000\000\000\000\000\000\000N\000\000\000\000\000\000\000I\000\000\000\000\000\000\000K\000\000\000\000\000\000\000F\000\000\000\000\000\000\000G\000\000\000\000\000\000\000F\000\000\000\000\000\000\000K\000\000\000\000\000\000\000H\000\000\000\000\000\000\000G\000\000\000\000\000\000\000Q\000\000\000\000\000\000\000J\000\000\000\000\000\000\000K\000\000\000\000\000\000\000R\000\000\000\000\000\000\000N\000\000\000\000\000\000\000Q\000\000\000\000\000\000\000L\000\000\000\000\000\000\000H\000\000\000\000\000\000\000J\000\000\000\000\000\000\000F\000\000\000\000\000\000\000H\000\000\000\000\000\000\000J\000\000\000\000\000\000\000M\000\000\000\000\000\000\000G\000\000\000\000\000\000\000R\000\000\000\000\000\000\000I\000\000\000\000\000\000\000J\000\000\000\000\000\000\000Q\000\000\000\000\000\000\000F\000\000\000\000\000\000\000J\000\000\000\000\000\000\000R\000\000\000\000\000\000\000G\000\000\000\000\000\000\000R\000\000\000\000\000\000\000M\000\000\000\000\000\000\000F\000\000\000\000\000\000\000G\000\000\000\000\000\000\000G\000\000\000\000\000\000\000K\000\000\000\000\000\000\000F\000\000\000\000\000\000\000Q\000\000\000\000\000\000\000J\000\000\000\000\000\000\000J\000\000\000\000\000\000\000K\000\000\000\000\000\000\000I\000\000\000\000\000\000\000I\000\000\000\000\000\000\000I\000\000\000\000\000\000\000N\000\000\000\000\000\000\000M\000\000\000\000\000\000\000K\000\000\000\000\000\000\000P\000\000\000\000\000\000\000Q\000\000\000\000\000\000\000G\000\000\000\000\000\000\000P\000\000\000\000\000\000\000N\000\000\000\000\000\000\000L\000\000\000\000\000\000\000Q\000\000\000\000\000\000\000L\000\000\000\000\000\000\000F\000\000\000\000\000\000\000K\000\000\000\000\000\000\000Q\000\000\000\000\000\000\000P\000\000\000\000\000\000\000R\000\000\000\000\000\000\000I\000\000\000\000\000\000\000N\000\000\000\000\000\000\000K\000\000\000\000\000\000\000J\000\000\000\000\000\000\000N\000\000\000\000\000\000\000R\000\000\000\000\000\000\000L\000\000\000\000\000\000\000K\000\000\000\000\000\000\000R\000\000\000\000\000\000\000P\000\000\000\000\000\000\000N\000\000\000\000\000\000\000Q\000\000\000\000\000\000\000P\000\000\000\000\000\000\000N\000\000\000\000\000\000\000F\000\000\000\000\000\000\000F\000\000\000\000\000\000\000O\000\000\000\000\000\000\000I\000\000\000\000\000\000\000L\000\000\000\000\000\000\000H\000\000\000\000\000\000\000P\000\000\000\000\000\000\000L\000\000\000\000\000\000\000O\000\000\000\000\000\000\000O\000\000\000\000\000\000\000F\000\000\000\000\000\000\000L\000\000\000\000\000\000\000J\000\000\000\000\000\000\000F\000\000\000\000\000\000\000O\000\000\000\000\000\000\000Q\000\000\000\000\000\000\000H\000\000\000\000\000\000\000F\000\000\000\000\000\000\000J\000\000\000\000\000\000\000K\000\000\000\000\000\000\000I\000\000\000\000\000\000\000K\000\000\000\000\000\000\000L\000\000\000\000\000\000\000F\000\000\000\000\000\000\000G\000\000\000\000\000\000\000K\000\000\000\000\000\000\000N\000\000\000\000\000\000\000L\000\000\000\000\000\000\000J\000\000\000\000\000\000\000K\000\000\000\000\000\000\000L\000\000\000\000\000\000\000K\000\000\000\000\000\000\000H\000\000\000\000\000\000\000I\000\000\000\000\000\000\000I\000\000\000\000\000\000\000N\000\000\000\000\000\000\000P\000\000\000\000\000\000\000R\000\000\000\000\000\000\000N\000\000\000\000\000\000\000J\000\000\000\000\000\000\000M\000\000\000\000\000\000\000R\000\000\000\000\000\000\000I\000\000\000\000\000\000\000O\000\000\000\000\000\000\000G\000\000\000\000\000\000\000O\000\000\000\000\000\000\000Q\000\000\000\000\000\000\000I\000\000\000\000\000\000\000I\000\000\000\000\000\000\000O\000\000\000\000\000\000\000O\000\000\000\000\000\000\000Q\000\000\000\000\000\000\000P\000\000\000\000\000\000\000N\000\000\000\000\000\000\000N\000\000\000\000\000\000\000J\000\000\000\000\000\000\000M\000\000\000\000\000\000\000H\000\000\000\000\000\000\000J\000\000\000\000\000\000\000I\000\000\000\000\000\000\000Q\000\000\000\000\000\000\000Q\000\000\000\000\000\000\000M\000\000\000\000\000\000\000L\000\000\000\000\000\000\000F\000\000\000\000\000\000\000"
      }
    }
  }
}
node {
  name: "normalize_element/component_5"
  op: "Const"
  device: "/device:CPU:0"
  attr {
    key: "_output_shapes"
    value {
      list {
        shape {
          dim {
            size: 313
          }
        }
      }
    }
  }
  attr {
    key: "dtype"
    value {
      type: DT_INT64
    }
  }
  attr {
    key: "value"
    value {
      tensor {
        dtype: DT_INT64
        tensor_shape {
          dim {
            size: 313
          }
        }
        tensor_content: "\001\000\000\000\000\000\000\000\001\000\000\000\000\000\000\000\003\000\000\000\000\000\000\000\001\000\000\000\000\000\000\000\001\000\000\000\000\000\000\000\001\000\000\000\000\000\000\000\001\000\000\000\000\000\000\000\001\000\000\000\000\000\000\000\001\000\000\000\000\000\000\000\001\000\000\000\000\000\000\000\002\000\000\000\000\000\000\000\002\000\000\000\000\000\000\000\001\000\000\000\000\000\000\000\001\000\000\000\000\000\000\000\001\000\000\000\000\000\000\000\003\000\000\000\000\000\000\000\003\000\000\000\000\000\000\000\002\000\000\000\000\000\000\000\001\000\000\000\000\000\000\000\001\000\000\000\000\000\000\000\001\000\000\000\000\000\000\000\003\000\000\000\000\000\000\000\001\000\000\000\000\000\000\000\001\000\000\000\000\000\000\000\001\000\000\000\000\000\000\000\003\000\000\000\000\000\000\000\001\000\000\000\000\000\000\000\001\000\000\000\000\000\000\000\001\000\000\000\000\000\000\000\003\000\000\000\000\000\000\000\001\000\000\000\000\000\000\000\002\000\000\000\000\000\000\000\001\000\000\000\000\000\000\000\003\000\000\000\000\000\000\000\001\000\000\000\000\000\000\000\001\000\000\000\000\000\000\000\001\000\000\000\000\000\000\000\003\000\000\000\000\000\000\000\003\000\000\000\000\000\000\000\001\000\000\000\000\000\000\000\001\000\000\000\000\000\000\000\003\000\000\000\000\000\000\000\001\000\000\000\000\000\000\000\003\000\000\000\000\000\000\000\001\000\000\000\000\000\000\000\002\000\000\000\000\000\000\000\001\000\000\000\000\000\000\000\001\000\000\000\000\000\000\000\001\000\000\000\000\000\000\000\001\000\000\000\000\000\000\000\001\000\000\000\000\000\000\000\003\000\000\000\000\000\000\000\001\000\000\000\000\000\000\000\003\000\000\000\000\000\000\000\002\000\000\000\000\000\000\000\001\000\000\000\000\000\000\000\001\000\000\000\000\000\000\000\001\000\000\000\000\000\000\000\001\000\000\000\000\000\000\000\003\000\000\000\000\000\000\000\001\000\000\000\000\000\000\000\002\000\000\000\000\000\000\000\002\000\000\000\000\000\000\000\003\000\000\000\000\000\000\000\003\000\000\000\000\000\000\000\001\000\000\000\000\000\000\000\001\000\000\000\000\000\000\000\001\000\000\000\000\000\000\000\001\000\000\000\000\000\000\000\001\000\000\000\000\000\000\000\003\000\000\000\000\000\000\000\003\000\000\000\000\000\000\000\001\000\000\000\000\000\000\000\001\000\000\000\000\000\000\000\002\000\000\000\000\000\000\000\003\000\000\000\000\000\000\000\002\000\000\000\000\000\000\000\003\000\000\000\000\000\000\000\002\000\000\000\000\000\000\000\001\000\000\000\000\000\000\000\001\000\000\000\000\000\000\000\001\000\000\000\000\000\000\000\002\000\000\000\000\000\000\000\003\000\000\000\000\000\000\000\003\000\000\000\000\000\000\000\001\000\000\000\000\000\000\000\001\000\000\000\000\000\000\000\001\000\000\000\000\000\000\000\003\000\000\000\000\000\000\000\001\000\000\000\000\000\000\000\002\000\000\000\000\000\000\000\001\000\000\000\000\000\000\000\003\000\000\000\000\000\000\000\001\000\000\000\000\000\000\000\001\000\000\000\000\000\000\000\003\000\000\000\000\000\000\000\001\000\000\000\000\000\000\000\002\000\000\000\000\000\000\000\002\000\000\000\000\000\000\000\001\000\000\000\000\000\000\000\001\000\000\000\000\000\000\000\001\000\000\000\000\000\000\000\001\000\000\000\000\000\000\000\003\000\000\000\000\000\000\000\001\000\000\000\000\000\000\000\001\000\000\000\000\000\000\000\001\000\000\000\000\000\000\000\001\000\000\000\000\000\000\000\001\000\000\000\000\000\000\000\002\000\000\000\000\000\000\000\001\000\000\000\000\000\000\000\002\000\000\000\000\000\000\000\001\000\000\000\000\000\000\000\001\000\000\000\000\000\000\000\001\000\000\000\000\000\000\000\002\000\000\000\000\000\000\000\001\000\000\000\000\000\000\000\003\000\000\000\000\000\000\000\001\000\000\000\000\000\000\000\001\000\000\000\000\000\000\000\001\000\000\000\000\000\000\000\001\000\000\000\000\000\000\000\001\000\000\000\000\000\000\000\003\000\000\000\000\000\000\000\003\000\000\000\000\000\000\000\001\000\000\000\000\000\000\000\001\000\000\000\000\000\000\000\003\000\000\000\000\000\000\000\001\000\000\000\000\000\000\000\002\000\000\000\000\000\000\000\001\000\000\000\000\000\000\000\001\000\000\000\000\000\000\000\001\000\000\000\000\000\000\000\001\000\000\000\000\000\000\000\001\000\000\000\000\000\000\000\001\000\000\000\000\000\000\000\001\000\000\000\000\000\000\000\003\000\000\000\000\000\000\000\003\000\000\000\000\000\000\000\001\000\000\000\000\000\000\000\003\000\000\000\000\000\000\000\001\000\000\000\000\000\000\000\001\000\000\000\000\000\000\000\001\000\000\000\000\000\000\000\001\000\000\000\000\000\000\000\001\000\000\000\000\000\000\000\002\000\000\000\000\000\000\000\002\000\000\000\000\000\000\000\002\000\000\000\000\000\000\000\001\000\000\000\000\000\000\000\002\000\000\000\000\000\000\000\002\000\000\000\000\000\000\000\001\000\000\000\000\000\000\000\001\000\000\000\000\000\000\000\001\000\000\000\000\000\000\000\001\000\000\000\000\000\000\000\001\000\000\000\000\000\000\000\001\000\000\000\000\000\000\000\001\000\000\000\000\000\000\000\002\000\000\000\000\000\000\000\001\000\000\000\000\000\000\000\001\000\000\000\000\000\000\000\003\000\000\000\000\000\000\000\002\000\000\000\000\000\000\000\003\000\000\000\000\000\000\000\001\000\000\000\000\000\000\000\003\000\000\000\000\000\000\000\003\000\000\000\000\000\000\000\001\000\000\000\000\000\000\000\001\000\000\000\000\000\000\000\001\000\000\000\000\000\000\000\001\000\000\000\000\000\000\000\001\000\000\000\000\000\000\000\003\000\000\000\000\000\000\000\001\000\000\000\000\000\000\000\001\000\000\000\000\000\000\000\001\000\000\000\000\000\000\000\001\000\000\000\000\000\000\000\001\000\000\000\000\000\000\000\001\000\000\000\000\000\000\000\001\000\000\000\000\000\000\000\003\000\000\000\000\000\000\000\001\000\000\000\000\000\000\000\003\000\000\000\000\000\000\000\003\000\000\000\000\000\000\000\001\000\000\000\000\000\000\000\001\000\000\000\000\000\000\000\001\000\000\000\000\000\000\000\001\000\000\000\000\000\000\000\003\000\000\000\000\000\000\000\003\000\000\000\000\000\000\000\001\000\000\000\000\000\000\000\002\000\000\000\000\000\000\000\001\000\000\000\000\000\000\000\001\000\000\000\000\000\000\000\001\000\000\000\000\000\000\000\001\000\000\000\000\000\000\000\001\000\000\000\000\000\000\000\001\000\000\000\000\000\000\000\001\000\000\000\000\000\000\000\001\000\000\000\000\000\000\000\002\000\000\000\000\000\000\000\001\000\000\000\000\000\000\000\001\000\000\000\000\000\000\000\003\000\000\000\000\000\000\000\001\000\000\000\000\000\000\000\001\000\000\000\000\000\000\000\003\000\000\000\000\000\000\000\003\000\000\000\000\000\000\000\001\000\000\000\000\000\000\000\001\000\000\000\000\000\000\000\001\000\000\000\000\000\000\000\001\000\000\000\000\000\000\000\003\000\000\000\000\000\000\000\001\000\000\000\000\000\000\000\002\000\000\000\000\000\000\000\003\000\000\000\000\000\000\000\001\000\000\000\000\000\000\000\003\000\000\000\000\000\000\000\001\000\000\000\000\000\000\000\003\000\000\000\000\000\000\000\003\000\000\000\000\000\000\000\001\000\000\000\000\000\000\000\002\000\000\000\000\000\000\000\001\000\000\000\000\000\000\000\001\000\000\000\000\000\000\000\003\000\000\000\000\000\000\000\003\000\000\000\000\000\000\000\001\000\000\000\000\000\000\000\002\000\000\000\000\000\000\000\001\000\000\000\000\000\000\000\003\000\000\000\000\000\000\000\002\000\000\000\000\000\000\000\003\000\000\000\000\000\000\000\001\000\000\000\000\000\000\000\001\000\000\000\000\000\000\000\001\000\000\000\000\000\000\000\001\000\000\000\000\000\000\000\002\000\000\000\000\000\000\000\001\000\000\000\000\000\000\000\001\000\000\000\000\000\000\000\001\000\000\000\000\000\000\000\001\000\000\000\000\000\000\000\001\000\000\000\000\000\000\000\003\000\000\000\000\000\000\000\003\000\000\000\000\000\000\000\002\000\000\000\000\000\000\000\002\000\000\000\000\000\000\000\001\000\000\000\000\000\000\000\002\000\000\000\000\000\000\000\001\000\000\000\000\000\000\000\001\000\000\000\000\000\000\000\002\000\000\000\000\000\000\000\002\000\000\000\000\000\000\000\001\000\000\000\000\000\000\000\003\000\000\000\000\000\000\000\001\000\000\000\000\000\000\000\001\000\000\000\000\000\000\000\001\000\000\000\000\000\000\000\001\000\000\000\000\000\000\000\001\000\000\000\000\000\000\000\001\000\000\000\000\000\000\000\001\000\000\000\000\000\000\000\001\000\000\000\000\000\000\000\001\000\000\000\000\000\000\000\001\000\000\000\000\000\000\000\001\000\000\000\000\000\000\000\001\000\000\000\000\000\000\000\001\000\000\000\000\000\000\000\003\000\000\000\000\000\000\000\001\000\000\000\000\000\000\000\001\000\000\000\000\000\000\000\001\000\000\000\000\000\000\000\001\000\000\000\000\000\000\000\003\000\000\000\000\000\000\000\003\000\000\000\000\000\000\000\001\000\000\000\000\000\000\000\001\000\000\000\000\000\000\000\002\000\000\000\000\000\000\000\002\000\000\000\000\000\000\000\002\000\000\000\000\000\000\000\001\000\000\000\000\000\000\000\002\000\000\000\000\000\000\000\001\000\000\000\000\000\000\000\001\000\000\000\000\000\000\000\001\000\000\000\000\000\000\000\001\000\000\000\000\000\000\000\002\000\000\000\000\000\000\000\001\000\000\000\000\000\000\000\003\000\000\000\000\000\000\000\001\000\000\000\000\000\000\000\001\000\000\000\000\000\000\000\001\000\000\000\000\000\000\000\001\000\000\000\000\000\000\000\002\000\000\000\000\000\000\000\001\000\000\000\000\000\000\000\001\000\000\000\000\000\000\000\001\000\000\000\000\000\000\000\001\000\000\000\000\000\000\000\003\000\000\000\000\000\000\000\003\000\000\000\000\000\000\000\001\000\000\000\000\000\000\000\001\000\000\000\000\000\000\000\001\000\000\000\000\000\000\000\002\000\000\000\000\000\000\000\001\000\000\000\000\000\000\000\001\000\000\000\000\000\000\000\001\000\000\000\000\000\000\000\003\000\000\000\000\000\000\000\003\000\000\000\000\000\000\000\001\000\000\000\000\000\000\000\001\000\000\000\000\000\000\000\002\000\000\000\000\000\000\000"
      }
    }
  }
}
node {
  name: "normalize_element/component_6"
  op: "Const"
  device: "/device:CPU:0"
  attr {
    key: "_output_shapes"
    value {
      list {
        shape {
          dim {
            size: 313
          }
        }
      }
    }
  }
  attr {
    key: "dtype"
    value {
      type: DT_DOUBLE
    }
  }
  attr {
    key: "value"
    value {
      tensor {
        dtype: DT_DOUBLE
        tensor_shape {
          dim {
            size: 313
          }
        }
        tensor_content: "\177\227\212\005\224\342\330?\214\371:\360\n\177\310\277!\275\274\210\273\317\346\277#G\327\314\004\023\324?\'\247\305\375\340\214\373?6\336\022\253t\374\303\277\203B\373\264C\354\353\277[\0140\032mS\353?\262\2265\254Fc\360?\177\rg\262\210\203\353?\261\372hyd\223\330\277\245\032v\345}X\345\277\236\327t\220k\031\373?\247\032m\326\273<\345?2\235\224\357[\267\311?\3061\233\371\261\257\360\277\002\300J\350\n\t\363\277\rgm\354\266@\365\277\\\014\212gT\317\243\277\330\203\034\217\211\271\365?\'\247\305\375\340\214\373?\212:z\213\202\233\352\277$\273\025\263\271f\366?\255\223\277\227{ \004@\343QfC\231\203\336\277\355\034\344\025\265\270\345\277\014\351\206\253\025\200\345?|J|\336\004=\355\277\273~i\027\203\310\002@\\$N\326r\262\362\277\243\016\236J\244\263\353?\224@f\264\030!\363\277\345\246~\376\324H\367?\305\013\253s\304\200\313\277\344Y\272!\220I\277?\243\343C\034\203\242\364?w\031\033Z\007S\315?\025UDh\t\203\366\277q?/\034\375\360\362\277\250K3\322I \371?\314\336\227Q\035\317\343?\270A\235L4Q\363\277K\205\254\373\207\313\361\277X\250\016k\323Z\363\277\240K\263v m\355\277jIE\375;s\324?s\334)j\223\010\334\277\220\345\341+p\211\335\277\237\"\367\016?\251\346\277ZQF\313\323\020\372?\020\260H\225\210g\360\277\3061\233\371\261\257\360\277GD\333\346b\304\343\277-\271\000We\350\361\277~/-\311zO\360\277H\272\267\223We\326\277nZ~1\207\336\357\277\305\207OV\364\321\376?\375=\237\257\376\336\366?\243|\035\n\340r\275\277\005\361\007\325\326\320\346?\311\201u\0025\352\355\277\230.\242\247\373\\\310?\252\214\r\3660C\347\277I\007\317\311\250&\342\277\345\373\250\327\224E\340\277\365\236}0=\253\321?!\321\003/\322\215\341?\210{\271&\372\267\334?m\303\357\260]\231\363\277\3512\322\221\315\337\360\277<@\215\204\014\214\353\277\024E0@\260C\374?KYG\231k\256\357\277\035\261\355\374\243F\355\277r\243Y\332X\005\353\277\352(*7\341r\363\277\246\325_4\027\233\366\277qVB\244\007D\337\277f9C\363fk\352\277\223\007\226$\336\035\362?\363\307K\266\242\246\330\277RQ\306o\252]\356\277\357\242\313\333@}\342\277\345\327M\t%H\333\277,\271S\260q\252\265?\337\242\302\025,\373\332\277\267\366\032\316`\301\347?cO1o\177\222\365\277\217\276\272{\014\367\366?\"EB\025\207\341\363\277\326\226\035a\302l\000@U4\331\223\340\"\341\277\025g\355G\340\363\340?\203\221\260\261\324\372\367?~/-\311zO\360\277\004\310Km\365\014\340?\002\300J\350\n\t\363\277RQ\306o\252]\356\277+\2000\307*\345\360?\201\316\274\316\216\230\371?+\261\377\321z\344\324\277\270\342\323\'J\003\355\277t\273n\207\234H\362\277\334\201l\252\3054\305?kr\001e\0357\333?\n*\306F\215\234\307?u\263[\344-\r\325?\341y\364\217\306\377\323?\032\376\026Qy?\311\277\203bQ9\335Y\002@q?/\034\375\360\362\277\253\236\266\325\007\264\361?U\252\265@\325\303\323\277\250\335`\271\001\237\343?M@\215;_\362\322?3\211MIE\371\336?J\302\270\030Bi\363\277CJ\265:\"\254\364?\235sJ\322\017\005\343?\3414\347\355!^\365?z\213\273y|Y\337?\207\003H\302\207\345\371?5\332;\225\205[\367\277\313\007]\310\300\256\352\277v\257(fp\216\344\277p\364\254\235)a\347?\002\300J\350\n\t\363\2779\241\375~\370B\322\277\377!Efy\345\356?\2420da\226\177\360\277\020\260H\225\210g\360\277\323wM\003r0\374?\223\371\026\264\002\020\310?\020\275\274\321hi\317\277\020\230*\331\202\010\351?\214\250\360;\374>\274\277\347M!\247W\315\355\277\312Di\345zL\354\277r\265\002\272/v\365?m1\302\311\245\032\351\277\307\245\331\337f\003\323\277\210\t\007\351\000z\272?\244\275J\207\323W\357\277\243\257\220v\025K\000@\277\212M.\237Tx?Myf\332[\021\344\277\357\337\316\3518\377\343?\261\026\272\263\'q\360\277;\363uN\273\312\337\277\201\314\'\027\021g\331\277)\336\367\306\333B\354\277\236\325\337\330\355\347\332\277\004\310Km\365\014\340?\215k7xNc\376?3\0074\212\346\271\376?\231W^\017\335 \317?\025\315\265\314{U\351?>\025*G)_\364?w\177\240\2103\310\226\277+\261\377\321z\344\324\277\025UDh\t\203\366\277jj\255\206&q\272\277\236\264$\366\366\'\361\277\'X\020\001P~\357\277\363\237\325\"\237\355\001@\002\300J\350\n\t\363\277\377C\013}k\261\363\277P\2727\357\200\030\362\277+\274\355\000E\\\002@\010C\332\361\200\324\254\277\345\327M\t%H\333\277\272\336\227\232\312h\334\277\355\256\021\375l7\360\277\313\274\332I\355\036\377?\006\032\304<\270\224\355?\365z\"b\315\255\354?{\350\346\327&Z\325?\222k\311\361\373M\332\277\365\232\360d\230\260\250?\312\223\036\342\013[\370?\216>?\203\355\004\367\277\344\256\221\241C\204\324\277{\031\266\342vY\371\277s\000\2058\003\006\341\277\215\"\367W\354B\317\277S\347\312lQ}\305\277\372\014\342\3022\027\343\277\217\203L%\222\246\345?\023\n\313\370\367\016\353\277\310\035KD\331\325\365\277D8\003L\211\037\352?\362\2677\216Ig\356\277I4\276\257Gi\331?\032GWq\333_\370?\004\2707E\234\315\325?\237\"\367\016?\251\346\277\240\210\266\204\030\357\356?\303h;I\377z\365?\t&\234\327\2219\347\277\213\177\207-\'=\371?M>\370\203\341\300\362\277\001\005a\231q\306\341\277\033\nKT!\302\366?J\302\270\030Bi\363\277\325\227lDb\223\360?\222.\306\343\003\314\310\277v\025\361\352\013\360\354\277\310P\257\006\247\006\372\277U\373\377\364\343\003\320?*T\324s\320\343\336\277\346$e?v\t\347\277\235G\222\026\347%\275\277\233sS\341\321 \343\277\004[\300\201\300\304\220\277\377C\013}k\261\363\277\334\337\327A\250\264\314\277BUJu:\326\257\277\010\375\337o\260u\340\277K8\214\266t\356\365??\3570\262y\024\357\277#\200\260k\0012\345\277\212\314\247r:\032\365\277\346\266\222&.\210\361\277\347]5\317\260\014\330\277(\\:pK\341\317?\367E\315\177\263m\264\277\2338\345\212W\320\361\277\"\372\277\226\263Q\350?\030\321\203\323\250\332\365\277S\226\200\270B=\271\277\346\266\222&.\210\361\277\031a\023\364 \014\360\277:\312\271\346\331\006\331\277#+\206\222A5\374?\262to\225T\227\333?]i[x\027T\341?\353A\322vi\367\377?_\0342$B[\305?Q(\n\010\311\231\347\277\304+/,E\335\363?\344\377\333UR\304\320?\303S\255u\325\203\224?\311H\234c8\313\334?T6wZ p\361\277\243Y \311wC\367\277\010C\332\361\200\324\254\277\377\035\033\367}\202\316\277\351U\",B\321\372?p-\206<&\200\330\277\213\227\245\351,\234\340\277\274=X\260\362\232\362?<\322\272k\304\n\366\277\346\246+\245\310\206\263\277p\031?\226\017\302\315\277KYG\231k\256\357\277\301\215)\252\263\271\337?\363\307K\266\242\246\330\277\3540+\274\313v\340?\200-\217\002;\002\340\277\013&\223\310\317\035\347?i7\234\035e\002\372?\373\307\313\021\314Y\364\277\363\246\343,\270\250\262?\377\000\223\222DA\365?\n\375\326`\356Y\340?,\251\354.\014\251\367?O\201g_F\025\361?\332\272NX\204o\346\277\305\037\362\031\333>\326\277\311\320*\377\305\370\371?j\224\307{\017\003\360?\177J\315\034*\235\245\277\274\326\204\367[-\377?W \211\336\007I\346\277\246\325_4\027\233\366\277\371\303\375\n\237\324\347?i\226eBOP\340?|J|\336\004=\355\277BUJu:\326\257\277$\251l\323\342\365\353\277\257\020N\346\272\236\363?<@\215\204\014\214\353\277\023\341\005\202T/\344?\250\3316J\006<\303\277BUJu:\326\257\277\223\314\'\316c\315\340?C8\014[K;\352\277V\254J\370R\365\363?\337\276\023P\357\330\362\277\251\244\207\032\005\200\302?\006>\037\013(\222\322?&\2450Fc[\333\277[\0140\032mS\353?17\325y\202q\321?\234\274e\315LR\000@\304^\223\356\022\016\370?\nOX?s\375\355\277tx\366\234u\330\363?&\301\201\200&9\363\277<@\215\204\014\214\353\277(\311\202\005\021=\340?5H\016\256\315\334\354\277\204\177\376\302;n\355?<\322\272k\304\n\366\277\370;x~\323\302\372?\364\2778\0234k\373?\3745\236*\024\333\351\277\367E\315\177\263m\264\277\002\341\005\313\001\311\334\277\016\250G\020\236c\323\2771\023z\253\022t\354?-\'\323o\255i\347\277"
      }
    }
  }
}
node {
  name: "normalize_element/component_7"
  op: "Const"
  device: "/device:CPU:0"
  attr {
    key: "_output_shapes"
    value {
      list {
        shape {
          dim {
            size: 313
          }
        }
      }
    }
  }
  attr {
    key: "dtype"
    value {
      type: DT_DOUBLE
    }
  }
  attr {
    key: "value"
    value {
      tensor {
        dtype: DT_DOUBLE
        tensor_shape {
          dim {
            size: 313
          }
        }
        tensor_content: "\000\000\000\000\000\0001@\000\000\000\000\000\0006@\000\000\000\000\000\000:@3333334@\000\000\000\000\000\000,@\000\000\000\000\000\0008@\000\000\000\000\000\000:@\232\231\231\231\231\231:@\000\000\000\000\000\000*@\000\000\000\000\000\000.@\000\000\000\000\000\0009@\000\000\000\000\000\0008@\000\000\000\000\000\000.@\000\000\000\000\000\000.@\000\000\000\000\000\000*@\315\314\314\314\314LG@ffffff@@\000\000\000\000\000\000=@3333334@\000\000\000\000\000\000,@\000\000\000\000\000\000*@333333@@\000\000\000\000\000\0000@\000\000\000\000\000\000*@\000\000\000\000\000\0007@33333\2637@3333334@\000\000\000\000\000\0007@\000\000\000\000\000\000&@\000\000\000\000\000\000@@ffffff3@\000\000\000\000\000\000B@\000\000\000\000\000\000,@\000\000\000\000\000\0006@\000\000\000\000\000\0004@\000\000\000\000\000\000,@\000\000\000\000\000\2001@\315\314\314\314\314\014B@\000\000\000\000\000\000@@\000\000\000\000\000\0000@\000\000\000\000\000\2002@\000\000\000\000\000\000?@\000\000\000\000\000\200>@\315\314\314\314\314\014C@\232\231\231\231\231YA@\000\000\000\000\000\0003@\000\000\000\000\000\000<@\000\000\000\000\000\000<@\000\000\000\000\000\0006@\000\000\000\000\000\000,@\000\000\000\000\000\000C@ffffffD@\000\000\000\000\000\0005@\000\000\000\000\000\200?@\000\000\000\000\000\000F@\315\314\314\314\314\314:@\000\000\000\000\000@A@\000\000\000\000\000\000,@\000\000\000\000\000\2001@ffffff9@3333333@\000\000\000\000\000\000;@33333\263>@\000\000\000\000\000\0006@\232\231\231\231\231\0315@\000\000\000\000\000\200:@\000\000\000\000\000\0006@\232\231\231\231\231\2311@\232\231\231\231\231\2314@\000\000\000\000\000\000:@\000\000\000\000\000\000;@\000\000\000\000\000\000:@\000\000\000\000\000\000*@\000\000\000\000\000\000>@\000\000\000\000\000\000=@\000\000\000\000\000\0004@\000\000\000\000\000\000:@\000\000\000\000\000\200@@\000\000\000\000\000\0004@\000\000\000\000\000\000@@\000\000\000\000\000\000/@ffffff<@\000\000\000\000\000\200>@\000\000\000\000\000\0007@\232\231\231\231\231\231?@\315\314\314\314\314\3144@\000\000\000\000\000\0007@\000\000\000\000\000\0003@\315\314\314\314\314LF@\000\000\000\000\000\0000@\000\000\000\000\000\000=@\000\000\000\000\000\000*@\315\314\314\314\314L?@\000\000\000\000\000\0001@\000\000\000\000\000\000*@\000\000\000\000\000\000;@\000\000\000\000\000\2004@\315\314\314\314\314\214E@\000\000\000\000\000\200@@\000\000\000\000\000\0000@fffff\3460@\000\000\000\000\000\000?@\000\000\000\000\000\0005@\000\000\000\000\000\200B@\000\000\000\000\000\0002@\232\231\231\231\231\2314@\000\000\000\000\000\2004@\000\000\000\000\000\0000@\000\000\000\000\000\0003@\315\314\314\314\314L4@\000\000\000\000\000\000(@\000\000\000\000\000\200?@\000\000\000\000\000\000*@\000\000\000\000\000\000;@\000\000\000\000\000\2001@\000\000\000\000\000\000>@\232\231\231\231\231\0312@\000\000\000\000\000\000@@\000\000\000\000\000\000*@\000\000\000\000\000\0002@\000\000\000\000\000\000.@ffffff6@\000\000\000\000\000\000$@\315\314\314\314\314\214C@\000\000\000\000\000\000<@\000\000\000\000\000\000:@\232\231\231\231\231\2312@\000\000\000\000\000\000>@\000\000\000\000\000\2009@\000\000\000\000\000\2000@\315\314\314\314\314\014@@\000\000\000\000\000\000<@\000\000\000\000\000\0000@\000\000\000\000\000\000.@\000\000\000\000\000\0002@\000\000\000\000\000\000&@\000\000\000\000\000\0007@\000\000\000\000\000\000B@\000\000\000\000\000\000A@\000\000\000\000\000\000/@\000\000\000\000\000\0003@3333337@\000\000\000\000\000\000,@\000\000\000\000\000\2008@\000\000\000\000\000\000\"@\315\314\314\314\314L8@\000\000\000\000\000\000<@ffffff9@\000\000\000\000\000\000<@\000\000\000\000\000\000?@\000\000\000\000\000\0008@\000\000\000\000\000\000:@\000\000\000\000\000\000;@3333333@\000\000\000\000\000\000$@\000\000\000\000\000\000&@\232\231\231\231\231\0312@\000\000\000\000\000\000,@\000\000\000\000\000\000.@\000\000\000\000\000\0005@\232\231\231\231\231\0319@\315\314\314\314\314\014B@\232\231\231\231\231Y@@fffff&F@\000\000\000\000\000\000B@\000\000\000\000\000\000(@\315\314\314\314\314\014A@\000\000\000\000\000\000?@\000\000\000\000\000\000=@\000\000\000\000\000\000(@\000\000\000\000\000\000;@\232\231\231\231\231\231:@\315\314\314\314\314\3149@\000\000\000\000\000\200=@\000\000\000\000\000\000*@\000\000\000\000\000\0002@\000\000\000\000\000\000.@\000\000\000\000\000\0003@\000\000\000\000\000\0005@\000\000\000\000\000\0005@\000\000\000\000\000\000*@\000\000\000\000\000\000?@\000\000\000\000\000\2007@\000\000\000\000\000\000?@\000\000\000\000\000\0008@\000\000\000\000\000\000;@\315\314\314\314\314\3147@333333;@\000\000\000\000\000\0002@\000\000\000\000\000\0008@\000\000\000\000\000\000@@\000\000\000\000\000\000.@\000\000\000\000\000\000:@\000\000\000\000\000\000.@\000\000\000\000\000\000.@\000\000\000\000\000\0002@\000\000\000\000\000\000A@\000\000\000\000\000\000*@\000\000\000\000\000\0000@fffff\346=@\000\000\000\000\000\000.@\000\000\000\000\000\000?@\000\000\000\000\000\000=@\000\000\000\000\000\000,@\000\000\000\000\000\000C@\000\000\000\000\000\2001@\000\000\000\000\000\0006@\000\000\000\000\000\0009@\000\000\000\000\000\200A@\000\000\000\000\000\0003@\000\000\000\000\000\0005@\000\000\000\000\000\000>@\000\000\000\000\000\0003@\000\000\000\000\000\0008@\000\000\000\000\000\0002@\000\000\000\000\000\000:@\000\000\000\000\000\0004@\000\000\000\000\000\0002@\000\000\000\000\000\200;@\000\000\000\000\000\000/@\000\000\000\000\000\000=@\000\000\000\000\000\200B@\000\000\000\000\000\200C@\000\000\000\000\000\000>@\000\000\000\000\000\000<@ffffff3@\000\000\000\000\000\0003@\232\231\231\231\231\331B@\000\000\000\000\000\2002@\000\000\000\000\000\000:@\000\000\000\000\000\0004@fffff&@@\000\000\000\000\000\300D@\000\000\000\000\000\000@@\000\000\000\000\000\000(@fffff\3463@\000\000\000\000\000\0002@\000\000\000\000\000\000*@\000\000\000\000\000\0001@\000\000\000\000\000\000B@\000\000\000\000\000\000*@\000\000\000\000\000\0004@\000\000\000\000\000\000C@\232\231\231\231\231\0313@33333\263C@\315\314\314\314\314\214A@333333B@\232\231\231\231\231\2315@\000\000\000\000\000\000,@\000\000\000\000\000\0009@\000\000\000\000\000\300@@\000\000\000\000\000\000*@\000\000\000\000\000\200=@\000\000\000\000\000\0002@fffff\346;@\000\000\000\000\000\000<@fffff\3467@ffffff;@\000\000\000\000\000\0002@\000\000\000\000\000\0009@\000\000\000\000\000\0002@\000\000\000\000\000\000&@\232\231\231\231\231\331A@3333334@\000\000\000\000\000\000,@\000\000\000\000\000\0000@\000\000\000\000\000\000,@\000\000\000\000\000\0001@\000\000\000\000\000\0005@\000\000\000\000\000\0008@\000\000\000\000\000\2000@\000\000\000\000\000\000.@\000\000\000\000\000\0002@\000\000\000\000\000\000,@fffff\3467@\000\000\000\000\000\200@@\000\000\000\000\000\0000@\000\000\000\000\000\000.@\000\000\000\000\000\0009@\000\000\000\000\000\0006@\000\000\000\000\000\0007@\000\000\000\000\000\000,@\000\000\000\000\000\000:@3333333@ffffff:@\000\000\000\000\000\0009@33333\2631@\000\000\000\000\000\000:@\000\000\000\000\000\0001@\000\000\000\000\000\000C@\000\000\000\000\000\0002@\000\000\000\000\000\2005@\000\000\000\000\000\0003@\232\231\231\231\231\2311@\232\231\231\231\231\031<@\000\000\000\000\000\000*@\000\000\000\000\000\0000@\232\231\231\231\231\031A@\000\000\000\000\000\000/@\000\000\000\000\000\200B@\232\231\231\231\231\031@@\000\000\000\000\000\2004@fffff\346>@\000\000\000\000\000\0000@\000\000\000\000\000\000B@\000\000\000\000\000\000*@\000\000\000\000\000\000,@\000\000\000\000\000\0003@3333338@33333s@@\000\000\000\000\000\2008@\000\000\000\000\000\000*@\000\000\000\000\000\0009@"
      }
    }
  }
}
node {
  name: "TensorSliceDataset"
  op: "TensorSliceDataset"
  input: "normalize_element/component_0"
  input: "normalize_element/component_1"
  input: "normalize_element/component_2"
  input: "normalize_element/component_3"
  input: "normalize_element/component_4"
  input: "normalize_element/component_5"
  input: "normalize_element/component_6"
  input: "normalize_element/component_7"
  device: "/device:CPU:0"
  attr {
    key: "Toutput_types"
    value {
      list {
        type: DT_DOUBLE
        type: DT_DOUBLE
        type: DT_DOUBLE
        type: DT_DOUBLE
        type: DT_INT64
        type: DT_INT64
        type: DT_DOUBLE
        type: DT_DOUBLE
      }
    }
  }
  attr {
    key: "_output_shapes"
    value {
      list {
        shape {
        }
      }
    }
  }
  attr {
    key: "output_shapes"
    value {
      list {
        shape {
        }
        shape {
        }
        shape {
        }
        shape {
        }
        shape {
        }
        shape {
        }
        shape {
        }
        shape {
        }
      }
    }
  }
}
node {
  name: "buffer_size"
  op: "Const"
  device: "/device:CPU:0"
  attr {
    key: "_output_shapes"
    value {
      list {
        shape {
        }
      }
    }
  }
  attr {
    key: "dtype"
    value {
      type: DT_INT64
    }
  }
  attr {
    key: "value"
    value {
      tensor {
        dtype: DT_INT64
        tensor_shape {
        }
        int64_val: 100
      }
    }
  }
}
node {
  name: "seed"
  op: "Const"
  device: "/device:CPU:0"
  attr {
    key: "_output_shapes"
    value {
      list {
        shape {
        }
      }
    }
  }
  attr {
    key: "dtype"
    value {
      type: DT_INT64
    }
  }
  attr {
    key: "value"
    value {
      tensor {
        dtype: DT_INT64
        tensor_shape {
        }
        int64_val: 0
      }
    }
  }
}
node {
  name: "seed2"
  op: "Const"
  device: "/device:CPU:0"
  attr {
    key: "_output_shapes"
    value {
      list {
        shape {
        }
      }
    }
  }
  attr {
    key: "dtype"
    value {
      type: DT_INT64
    }
  }
  attr {
    key: "value"
    value {
      tensor {
        dtype: DT_INT64
        tensor_shape {
        }
        int64_val: 0
      }
    }
  }
}
node {
  name: "ShuffleDataset"
  op: "ShuffleDataset"
  input: "TensorSliceDataset"
  input: "buffer_size"
  input: "seed"
  input: "seed2"
  device: "/device:CPU:0"
  attr {
    key: "_output_shapes"
    value {
      list {
        shape {
        }
      }
    }
  }
  attr {
    key: "output_shapes"
    value {
      list {
        shape {
        }
        shape {
        }
        shape {
        }
        shape {
        }
        shape {
        }
        shape {
        }
        shape {
        }
        shape {
        }
      }
    }
  }
  attr {
    key: "output_types"
    value {
      list {
        type: DT_DOUBLE
        type: DT_DOUBLE
        type: DT_DOUBLE
        type: DT_DOUBLE
        type: DT_INT64
        type: DT_INT64
        type: DT_DOUBLE
        type: DT_DOUBLE
      }
    }
  }
  attr {
    key: "reshuffle_each_iteration"
    value {
      b: true
    }
  }
}
node {
  name: "count"
  op: "Const"
  device: "/device:CPU:0"
  attr {
    key: "_output_shapes"
    value {
      list {
        shape {
        }
      }
    }
  }
  attr {
    key: "dtype"
    value {
      type: DT_INT64
    }
  }
  attr {
    key: "value"
    value {
      tensor {
        dtype: DT_INT64
        tensor_shape {
        }
        int64_val: -1
      }
    }
  }
}
node {
  name: "RepeatDataset"
  op: "RepeatDataset"
  input: "ShuffleDataset"
  input: "count"
  device: "/device:CPU:0"
  attr {
    key: "_output_shapes"
    value {
      list {
        shape {
        }
      }
    }
  }
  attr {
    key: "output_shapes"
    value {
      list {
        shape {
        }
        shape {
        }
        shape {
        }
        shape {
        }
        shape {
        }
        shape {
        }
        shape {
        }
        shape {
        }
      }
    }
  }
  attr {
    key: "output_types"
    value {
      list {
        type: DT_DOUBLE
        type: DT_DOUBLE
        type: DT_DOUBLE
        type: DT_DOUBLE
        type: DT_INT64
        type: DT_INT64
        type: DT_DOUBLE
        type: DT_DOUBLE
      }
    }
  }
}
node {
  name: "batch_size"
  op: "Const"
  device: "/device:CPU:0"
  attr {
    key: "_output_shapes"
    value {
      list {
        shape {
        }
      }
    }
  }
  attr {
    key: "dtype"
    value {
      type: DT_INT64
    }
  }
  attr {
    key: "value"
    value {
      tensor {
        dtype: DT_INT64
        tensor_shape {
        }
        int64_val: 8
      }
    }
  }
}
node {
  name: "drop_remainder"
  op: "Const"
  device: "/device:CPU:0"
  attr {
    key: "_output_shapes"
    value {
      list {
        shape {
        }
      }
    }
  }
  attr {
    key: "dtype"
    value {
      type: DT_BOOL
    }
  }
  attr {
    key: "value"
    value {
      tensor {
        dtype: DT_BOOL
        tensor_shape {
        }
        bool_val: false
      }
    }
  }
}
node {
  name: "BatchDatasetV2"
  op: "BatchDatasetV2"
  input: "RepeatDataset"
  input: "batch_size"
  input: "drop_remainder"
  device: "/device:CPU:0"
  attr {
    key: "_output_shapes"
    value {
      list {
        shape {
        }
      }
    }
  }
  attr {
    key: "output_shapes"
    value {
      list {
        shape {
          dim {
            size: -1
          }
        }
        shape {
          dim {
            size: -1
          }
        }
        shape {
          dim {
            size: -1
          }
        }
        shape {
          dim {
            size: -1
          }
        }
        shape {
          dim {
            size: -1
          }
        }
        shape {
          dim {
            size: -1
          }
        }
        shape {
          dim {
            size: -1
          }
        }
        shape {
          dim {
            size: -1
          }
        }
      }
    }
  }
  attr {
    key: "output_types"
    value {
      list {
        type: DT_DOUBLE
        type: DT_DOUBLE
        type: DT_DOUBLE
        type: DT_DOUBLE
        type: DT_INT64
        type: DT_INT64
        type: DT_DOUBLE
        type: DT_DOUBLE
      }
    }
  }
  attr {
    key: "parallel_copy"
    value {
      b: false
    }
  }
}
node {
  name: "optimizations"
  op: "Const"
  attr {
    key: "_output_shapes"
    value {
      list {
        shape {
          dim {
            size: 3
          }
        }
      }
    }
  }
  attr {
    key: "dtype"
    value {
      type: DT_STRING
    }
  }
  attr {
    key: "value"
    value {
      tensor {
        dtype: DT_STRING
        tensor_shape {
          dim {
            size: 3
          }
        }
        string_val: "map_and_batch_fusion"
        string_val: "noop_elimination"
        string_val: "shuffle_and_repeat_fusion"
      }
    }
  }
}
node {
  name: "OptimizeDataset"
  op: "OptimizeDataset"
  input: "BatchDatasetV2"
  input: "optimizations"
  attr {
    key: "_output_shapes"
    value {
      list {
        shape {
        }
      }
    }
  }
  attr {
    key: "optimization_configs"
    value {
      list {
      }
    }
  }
  attr {
    key: "output_shapes"
    value {
      list {
        shape {
          dim {
            size: -1
          }
        }
        shape {
          dim {
            size: -1
          }
        }
        shape {
          dim {
            size: -1
          }
        }
        shape {
          dim {
            size: -1
          }
        }
        shape {
          dim {
            size: -1
          }
        }
        shape {
          dim {
            size: -1
          }
        }
        shape {
          dim {
            size: -1
          }
        }
        shape {
          dim {
            size: -1
          }
        }
      }
    }
  }
  attr {
    key: "output_types"
    value {
      list {
        type: DT_DOUBLE
        type: DT_DOUBLE
        type: DT_DOUBLE
        type: DT_DOUBLE
        type: DT_INT64
        type: DT_INT64
        type: DT_DOUBLE
        type: DT_DOUBLE
      }
    }
  }
}
node {
  name: "ModelDataset"
  op: "ModelDataset"
  input: "OptimizeDataset"
  attr {
    key: "_output_shapes"
    value {
      list {
        shape {
        }
      }
    }
  }
  attr {
    key: "algorithm"
    value {
      i: 0
    }
  }
  attr {
    key: "cpu_budget"
    value {
      i: 0
    }
  }
  attr {
    key: "output_shapes"
    value {
      list {
        shape {
          dim {
            size: -1
          }
        }
        shape {
          dim {
            size: -1
          }
        }
        shape {
          dim {
            size: -1
          }
        }
        shape {
          dim {
            size: -1
          }
        }
        shape {
          dim {
            size: -1
          }
        }
        shape {
          dim {
            size: -1
          }
        }
        shape {
          dim {
            size: -1
          }
        }
        shape {
          dim {
            size: -1
          }
        }
      }
    }
  }
  attr {
    key: "output_types"
    value {
      list {
        type: DT_DOUBLE
        type: DT_DOUBLE
        type: DT_DOUBLE
        type: DT_DOUBLE
        type: DT_INT64
        type: DT_INT64
        type: DT_DOUBLE
        type: DT_DOUBLE
      }
    }
  }
}
node {
  name: "IteratorV2"
  op: "IteratorV2"
  attr {
    key: "_output_shapes"
    value {
      list {
        shape {
        }
      }
    }
  }
  attr {
    key: "container"
    value {
      s: ""
    }
  }
  attr {
    key: "output_shapes"
    value {
      list {
        shape {
          dim {
            size: -1
          }
        }
        shape {
          dim {
            size: -1
          }
        }
        shape {
          dim {
            size: -1
          }
        }
        shape {
          dim {
            size: -1
          }
        }
        shape {
          dim {
            size: -1
          }
        }
        shape {
          dim {
            size: -1
          }
        }
        shape {
          dim {
            size: -1
          }
        }
        shape {
          dim {
            size: -1
          }
        }
      }
    }
  }
  attr {
    key: "output_types"
    value {
      list {
        type: DT_DOUBLE
        type: DT_DOUBLE
        type: DT_DOUBLE
        type: DT_DOUBLE
        type: DT_INT64
        type: DT_INT64
        type: DT_DOUBLE
        type: DT_DOUBLE
      }
    }
  }
  attr {
    key: "shared_name"
    value {
      s: ""
    }
  }
}
node {
  name: "MakeIterator"
  op: "MakeIterator"
  input: "ModelDataset"
  input: "IteratorV2"
  attr {
    key: "_class"
    value {
      list {
        s: "loc:@IteratorV2"
      }
    }
  }
}
node {
  name: "IteratorToStringHandle"
  op: "IteratorToStringHandle"
  input: "IteratorV2"
  attr {
    key: "_output_shapes"
    value {
      list {
        shape {
        }
      }
    }
  }
}
node {
  name: "IteratorGetNext"
  op: "IteratorGetNext"
  input: "IteratorV2"
  attr {
    key: "_output_shapes"
    value {
      list {
        shape {
          dim {
            size: -1
          }
        }
        shape {
          dim {
            size: -1
          }
        }
        shape {
          dim {
            size: -1
          }
        }
        shape {
          dim {
            size: -1
          }
        }
        shape {
          dim {
            size: -1
          }
        }
        shape {
          dim {
            size: -1
          }
        }
        shape {
          dim {
            size: -1
          }
        }
        shape {
          dim {
            size: -1
          }
        }
      }
    }
  }
  attr {
    key: "output_shapes"
    value {
      list {
        shape {
          dim {
            size: -1
          }
        }
        shape {
          dim {
            size: -1
          }
        }
        shape {
          dim {
            size: -1
          }
        }
        shape {
          dim {
            size: -1
          }
        }
        shape {
          dim {
            size: -1
          }
        }
        shape {
          dim {
            size: -1
          }
        }
        shape {
          dim {
            size: -1
          }
        }
        shape {
          dim {
            size: -1
          }
        }
      }
    }
  }
  attr {
    key: "output_types"
    value {
      list {
        type: DT_DOUBLE
        type: DT_DOUBLE
        type: DT_DOUBLE
        type: DT_DOUBLE
        type: DT_INT64
        type: DT_INT64
        type: DT_DOUBLE
        type: DT_DOUBLE
      }
    }
  }
}
node {
  name: "dnn/Cast"
  op: "Cast"
  input: "IteratorGetNext"
  attr {
    key: "DstT"
    value {
      type: DT_FLOAT
    }
  }
  attr {
    key: "SrcT"
    value {
      type: DT_DOUBLE
    }
  }
  attr {
    key: "Truncate"
    value {
      b: false
    }
  }
  attr {
    key: "_output_shapes"
    value {
      list {
        shape {
          dim {
            size: -1
          }
        }
      }
    }
  }
}
node {
  name: "dnn/Cast_1"
  op: "Cast"
  input: "IteratorGetNext:1"
  attr {
    key: "DstT"
    value {
      type: DT_FLOAT
    }
  }
  attr {
    key: "SrcT"
    value {
      type: DT_DOUBLE
    }
  }
  attr {
    key: "Truncate"
    value {
      b: false
    }
  }
  attr {
    key: "_output_shapes"
    value {
      list {
        shape {
          dim {
            size: -1
          }
        }
      }
    }
  }
}
node {
  name: "dnn/Cast_2"
  op: "Cast"
  input: "IteratorGetNext:2"
  attr {
    key: "DstT"
    value {
      type: DT_FLOAT
    }
  }
  attr {
    key: "SrcT"
    value {
      type: DT_DOUBLE
    }
  }
  attr {
    key: "Truncate"
    value {
      b: false
    }
  }
  attr {
    key: "_output_shapes"
    value {
      list {
        shape {
          dim {
            size: -1
          }
        }
      }
    }
  }
}
node {
  name: "dnn/Cast_3"
  op: "Cast"
  input: "IteratorGetNext:3"
  attr {
    key: "DstT"
    value {
      type: DT_FLOAT
    }
  }
  attr {
    key: "SrcT"
    value {
      type: DT_DOUBLE
    }
  }
  attr {
    key: "Truncate"
    value {
      b: false
    }
  }
  attr {
    key: "_output_shapes"
    value {
      list {
        shape {
          dim {
            size: -1
          }
        }
      }
    }
  }
}
node {
  name: "dnn/Cast_4"
  op: "Cast"
  input: "IteratorGetNext:6"
  attr {
    key: "DstT"
    value {
      type: DT_FLOAT
    }
  }
  attr {
    key: "SrcT"
    value {
      type: DT_DOUBLE
    }
  }
  attr {
    key: "Truncate"
    value {
      b: false
    }
  }
  attr {
    key: "_output_shapes"
    value {
      list {
        shape {
          dim {
            size: -1
          }
        }
      }
    }
  }
}
node {
  name: "dnn/input_from_feature_columns/input_layer/Acceleration_1/ExpandDims/dim"
  op: "Const"
  attr {
    key: "_output_shapes"
    value {
      list {
        shape {
        }
      }
    }
  }
  attr {
    key: "dtype"
    value {
      type: DT_INT32
    }
  }
  attr {
    key: "value"
    value {
      tensor {
        dtype: DT_INT32
        tensor_shape {
        }
        int_val: -1
      }
    }
  }
}
node {
  name: "dnn/input_from_feature_columns/input_layer/Acceleration_1/ExpandDims"
  op: "ExpandDims"
  input: "dnn/Cast"
  input: "dnn/input_from_feature_columns/input_layer/Acceleration_1/ExpandDims/dim"
  attr {
    key: "T"
    value {
      type: DT_FLOAT
    }
  }
  attr {
    key: "Tdim"
    value {
      type: DT_INT32
    }
  }
  attr {
    key: "_output_shapes"
    value {
      list {
        shape {
          dim {
            size: -1
          }
          dim {
            size: 1
          }
        }
      }
    }
  }
}
node {
  name: "dnn/input_from_feature_columns/input_layer/Acceleration_1/Shape"
  op: "Shape"
  input: "dnn/input_from_feature_columns/input_layer/Acceleration_1/ExpandDims"
  attr {
    key: "T"
    value {
      type: DT_FLOAT
    }
  }
  attr {
    key: "_output_shapes"
    value {
      list {
        shape {
          dim {
            size: 2
          }
        }
      }
    }
  }
  attr {
    key: "out_type"
    value {
      type: DT_INT32
    }
  }
}
node {
  name: "dnn/input_from_feature_columns/input_layer/Acceleration_1/strided_slice/stack"
  op: "Const"
  attr {
    key: "_output_shapes"
    value {
      list {
        shape {
          dim {
            size: 1
          }
        }
      }
    }
  }
  attr {
    key: "dtype"
    value {
      type: DT_INT32
    }
  }
  attr {
    key: "value"
    value {
      tensor {
        dtype: DT_INT32
        tensor_shape {
          dim {
            size: 1
          }
        }
        int_val: 0
      }
    }
  }
}
node {
  name: "dnn/input_from_feature_columns/input_layer/Acceleration_1/strided_slice/stack_1"
  op: "Const"
  attr {
    key: "_output_shapes"
    value {
      list {
        shape {
          dim {
            size: 1
          }
        }
      }
    }
  }
  attr {
    key: "dtype"
    value {
      type: DT_INT32
    }
  }
  attr {
    key: "value"
    value {
      tensor {
        dtype: DT_INT32
        tensor_shape {
          dim {
            size: 1
          }
        }
        int_val: 1
      }
    }
  }
}
node {
  name: "dnn/input_from_feature_columns/input_layer/Acceleration_1/strided_slice/stack_2"
  op: "Const"
  attr {
    key: "_output_shapes"
    value {
      list {
        shape {
          dim {
            size: 1
          }
        }
      }
    }
  }
  attr {
    key: "dtype"
    value {
      type: DT_INT32
    }
  }
  attr {
    key: "value"
    value {
      tensor {
        dtype: DT_INT32
        tensor_shape {
          dim {
            size: 1
          }
        }
        int_val: 1
      }
    }
  }
}
node {
  name: "dnn/input_from_feature_columns/input_layer/Acceleration_1/strided_slice"
  op: "StridedSlice"
  input: "dnn/input_from_feature_columns/input_layer/Acceleration_1/Shape"
  input: "dnn/input_from_feature_columns/input_layer/Acceleration_1/strided_slice/stack"
  input: "dnn/input_from_feature_columns/input_layer/Acceleration_1/strided_slice/stack_1"
  input: "dnn/input_from_feature_columns/input_layer/Acceleration_1/strided_slice/stack_2"
  attr {
    key: "Index"
    value {
      type: DT_INT32
    }
  }
  attr {
    key: "T"
    value {
      type: DT_INT32
    }
  }
  attr {
    key: "_output_shapes"
    value {
      list {
        shape {
        }
      }
    }
  }
  attr {
    key: "begin_mask"
    value {
      i: 0
    }
  }
  attr {
    key: "ellipsis_mask"
    value {
      i: 0
    }
  }
  attr {
    key: "end_mask"
    value {
      i: 0
    }
  }
  attr {
    key: "new_axis_mask"
    value {
      i: 0
    }
  }
  attr {
    key: "shrink_axis_mask"
    value {
      i: 1
    }
  }
}
node {
  name: "dnn/input_from_feature_columns/input_layer/Acceleration_1/Reshape/shape/1"
  op: "Const"
  attr {
    key: "_output_shapes"
    value {
      list {
        shape {
        }
      }
    }
  }
  attr {
    key: "dtype"
    value {
      type: DT_INT32
    }
  }
  attr {
    key: "value"
    value {
      tensor {
        dtype: DT_INT32
        tensor_shape {
        }
        int_val: 1
      }
    }
  }
}
node {
  name: "dnn/input_from_feature_columns/input_layer/Acceleration_1/Reshape/shape"
  op: "Pack"
  input: "dnn/input_from_feature_columns/input_layer/Acceleration_1/strided_slice"
  input: "dnn/input_from_feature_columns/input_layer/Acceleration_1/Reshape/shape/1"
  attr {
    key: "N"
    value {
      i: 2
    }
  }
  attr {
    key: "T"
    value {
      type: DT_INT32
    }
  }
  attr {
    key: "_output_shapes"
    value {
      list {
        shape {
          dim {
            size: 2
          }
        }
      }
    }
  }
  attr {
    key: "axis"
    value {
      i: 0
    }
  }
}
node {
  name: "dnn/input_from_feature_columns/input_layer/Acceleration_1/Reshape"
  op: "Reshape"
  input: "dnn/input_from_feature_columns/input_layer/Acceleration_1/ExpandDims"
  input: "dnn/input_from_feature_columns/input_layer/Acceleration_1/Reshape/shape"
  attr {
    key: "T"
    value {
      type: DT_FLOAT
    }
  }
  attr {
    key: "Tshape"
    value {
      type: DT_INT32
    }
  }
  attr {
    key: "_output_shapes"
    value {
      list {
        shape {
          dim {
            size: -1
          }
          dim {
            size: 1
          }
        }
      }
    }
  }
}
node {
  name: "dnn/input_from_feature_columns/input_layer/Cylinders_1/ExpandDims/dim"
  op: "Const"
  attr {
    key: "_output_shapes"
    value {
      list {
        shape {
        }
      }
    }
  }
  attr {
    key: "dtype"
    value {
      type: DT_INT32
    }
  }
  attr {
    key: "value"
    value {
      tensor {
        dtype: DT_INT32
        tensor_shape {
        }
        int_val: -1
      }
    }
  }
}
node {
  name: "dnn/input_from_feature_columns/input_layer/Cylinders_1/ExpandDims"
  op: "ExpandDims"
  input: "dnn/Cast_1"
  input: "dnn/input_from_feature_columns/input_layer/Cylinders_1/ExpandDims/dim"
  attr {
    key: "T"
    value {
      type: DT_FLOAT
    }
  }
  attr {
    key: "Tdim"
    value {
      type: DT_INT32
    }
  }
  attr {
    key: "_output_shapes"
    value {
      list {
        shape {
          dim {
            size: -1
          }
          dim {
            size: 1
          }
        }
      }
    }
  }
}
node {
  name: "dnn/input_from_feature_columns/input_layer/Cylinders_1/Shape"
  op: "Shape"
  input: "dnn/input_from_feature_columns/input_layer/Cylinders_1/ExpandDims"
  attr {
    key: "T"
    value {
      type: DT_FLOAT
    }
  }
  attr {
    key: "_output_shapes"
    value {
      list {
        shape {
          dim {
            size: 2
          }
        }
      }
    }
  }
  attr {
    key: "out_type"
    value {
      type: DT_INT32
    }
  }
}
node {
  name: "dnn/input_from_feature_columns/input_layer/Cylinders_1/strided_slice/stack"
  op: "Const"
  attr {
    key: "_output_shapes"
    value {
      list {
        shape {
          dim {
            size: 1
          }
        }
      }
    }
  }
  attr {
    key: "dtype"
    value {
      type: DT_INT32
    }
  }
  attr {
    key: "value"
    value {
      tensor {
        dtype: DT_INT32
        tensor_shape {
          dim {
            size: 1
          }
        }
        int_val: 0
      }
    }
  }
}
node {
  name: "dnn/input_from_feature_columns/input_layer/Cylinders_1/strided_slice/stack_1"
  op: "Const"
  attr {
    key: "_output_shapes"
    value {
      list {
        shape {
          dim {
            size: 1
          }
        }
      }
    }
  }
  attr {
    key: "dtype"
    value {
      type: DT_INT32
    }
  }
  attr {
    key: "value"
    value {
      tensor {
        dtype: DT_INT32
        tensor_shape {
          dim {
            size: 1
          }
        }
        int_val: 1
      }
    }
  }
}
node {
  name: "dnn/input_from_feature_columns/input_layer/Cylinders_1/strided_slice/stack_2"
  op: "Const"
  attr {
    key: "_output_shapes"
    value {
      list {
        shape {
          dim {
            size: 1
          }
        }
      }
    }
  }
  attr {
    key: "dtype"
    value {
      type: DT_INT32
    }
  }
  attr {
    key: "value"
    value {
      tensor {
        dtype: DT_INT32
        tensor_shape {
          dim {
            size: 1
          }
        }
        int_val: 1
      }
    }
  }
}
node {
  name: "dnn/input_from_feature_columns/input_layer/Cylinders_1/strided_slice"
  op: "StridedSlice"
  input: "dnn/input_from_feature_columns/input_layer/Cylinders_1/Shape"
  input: "dnn/input_from_feature_columns/input_layer/Cylinders_1/strided_slice/stack"
  input: "dnn/input_from_feature_columns/input_layer/Cylinders_1/strided_slice/stack_1"
  input: "dnn/input_from_feature_columns/input_layer/Cylinders_1/strided_slice/stack_2"
  attr {
    key: "Index"
    value {
      type: DT_INT32
    }
  }
  attr {
    key: "T"
    value {
      type: DT_INT32
    }
  }
  attr {
    key: "_output_shapes"
    value {
      list {
        shape {
        }
      }
    }
  }
  attr {
    key: "begin_mask"
    value {
      i: 0
    }
  }
  attr {
    key: "ellipsis_mask"
    value {
      i: 0
    }
  }
  attr {
    key: "end_mask"
    value {
      i: 0
    }
  }
  attr {
    key: "new_axis_mask"
    value {
      i: 0
    }
  }
  attr {
    key: "shrink_axis_mask"
    value {
      i: 1
    }
  }
}
node {
  name: "dnn/input_from_feature_columns/input_layer/Cylinders_1/Reshape/shape/1"
  op: "Const"
  attr {
    key: "_output_shapes"
    value {
      list {
        shape {
        }
      }
    }
  }
  attr {
    key: "dtype"
    value {
      type: DT_INT32
    }
  }
  attr {
    key: "value"
    value {
      tensor {
        dtype: DT_INT32
        tensor_shape {
        }
        int_val: 1
      }
    }
  }
}
node {
  name: "dnn/input_from_feature_columns/input_layer/Cylinders_1/Reshape/shape"
  op: "Pack"
  input: "dnn/input_from_feature_columns/input_layer/Cylinders_1/strided_slice"
  input: "dnn/input_from_feature_columns/input_layer/Cylinders_1/Reshape/shape/1"
  attr {
    key: "N"
    value {
      i: 2
    }
  }
  attr {
    key: "T"
    value {
      type: DT_INT32
    }
  }
  attr {
    key: "_output_shapes"
    value {
      list {
        shape {
          dim {
            size: 2
          }
        }
      }
    }
  }
  attr {
    key: "axis"
    value {
      i: 0
    }
  }
}
node {
  name: "dnn/input_from_feature_columns/input_layer/Cylinders_1/Reshape"
  op: "Reshape"
  input: "dnn/input_from_feature_columns/input_layer/Cylinders_1/ExpandDims"
  input: "dnn/input_from_feature_columns/input_layer/Cylinders_1/Reshape/shape"
  attr {
    key: "T"
    value {
      type: DT_FLOAT
    }
  }
  attr {
    key: "Tshape"
    value {
      type: DT_INT32
    }
  }
  attr {
    key: "_output_shapes"
    value {
      list {
        shape {
          dim {
            size: -1
          }
          dim {
            size: 1
          }
        }
      }
    }
  }
}
node {
  name: "dnn/input_from_feature_columns/input_layer/Displacement_1/ExpandDims/dim"
  op: "Const"
  attr {
    key: "_output_shapes"
    value {
      list {
        shape {
        }
      }
    }
  }
  attr {
    key: "dtype"
    value {
      type: DT_INT32
    }
  }
  attr {
    key: "value"
    value {
      tensor {
        dtype: DT_INT32
        tensor_shape {
        }
        int_val: -1
      }
    }
  }
}
node {
  name: "dnn/input_from_feature_columns/input_layer/Displacement_1/ExpandDims"
  op: "ExpandDims"
  input: "dnn/Cast_2"
  input: "dnn/input_from_feature_columns/input_layer/Displacement_1/ExpandDims/dim"
  attr {
    key: "T"
    value {
      type: DT_FLOAT
    }
  }
  attr {
    key: "Tdim"
    value {
      type: DT_INT32
    }
  }
  attr {
    key: "_output_shapes"
    value {
      list {
        shape {
          dim {
            size: -1
          }
          dim {
            size: 1
          }
        }
      }
    }
  }
}
node {
  name: "dnn/input_from_feature_columns/input_layer/Displacement_1/Shape"
  op: "Shape"
  input: "dnn/input_from_feature_columns/input_layer/Displacement_1/ExpandDims"
  attr {
    key: "T"
    value {
      type: DT_FLOAT
    }
  }
  attr {
    key: "_output_shapes"
    value {
      list {
        shape {
          dim {
            size: 2
          }
        }
      }
    }
  }
  attr {
    key: "out_type"
    value {
      type: DT_INT32
    }
  }
}
node {
